unsigned char model_data[] = {
  0x1c, 0x00, 0x00, 0x00, 0x54, 0x46, 0x4c, 0x33, 0x14, 0x00, 0x20, 0x00,
  0x1c, 0x00, 0x18, 0x00, 0x14, 0x00, 0x10, 0x00, 0x0c, 0x00, 0x00, 0x00,
  0x08, 0x00, 0x04, 0x00, 0x14, 0x00, 0x00, 0x00, 0x1c, 0x00, 0x00, 0x00,
  0x88, 0x00, 0x00, 0x00, 0xb8, 0x00, 0x00, 0x00, 0xe4, 0x12, 0x00, 0x00,
  0xf4, 0x12, 0x00, 0x00, 0xd8, 0x20, 0x00, 0x00, 0x03, 0x00, 0x00, 0x00,
  0x01, 0x00, 0x00, 0x00, 0x04, 0x00, 0x00, 0x00, 0x12, 0xec, 0xff, 0xff,
  0x0c, 0x00, 0x00, 0x00, 0x1c, 0x00, 0x00, 0x00, 0x38, 0x00, 0x00, 0x00,
  0x0f, 0x00, 0x00, 0x00, 0x73, 0x65, 0x72, 0x76, 0x69, 0x6e, 0x67, 0x5f,
  0x64, 0x65, 0x66, 0x61, 0x75, 0x6c, 0x74, 0x00, 0x01, 0x00, 0x00, 0x00,
  0x04, 0x00, 0x00, 0x00, 0xbc, 0xff, 0xff, 0xff, 0x11, 0x00, 0x00, 0x00,
  0x04, 0x00, 0x00, 0x00, 0x07, 0x00, 0x00, 0x00, 0x64, 0x65, 0x6e, 0x73,
  0x65, 0x5f, 0x33, 0x00, 0x01, 0x00, 0x00, 0x00, 0x04, 0x00, 0x00, 0x00,
  0xf2, 0xec, 0xff, 0xff, 0x04, 0x00, 0x00, 0x00, 0x0e, 0x00, 0x00, 0x00,
  0x63, 0x6f, 0x6e, 0x76, 0x32, 0x64, 0x5f, 0x32, 0x5f, 0x69, 0x6e, 0x70,
  0x75, 0x74, 0x00, 0x00, 0x01, 0x00, 0x00, 0x00, 0x0c, 0x00, 0x00, 0x00,
  0x08, 0x00, 0x0c, 0x00, 0x08, 0x00, 0x04, 0x00, 0x08, 0x00, 0x00, 0x00,
  0x13, 0x00, 0x00, 0x00, 0x04, 0x00, 0x00, 0x00, 0x13, 0x00, 0x00, 0x00,
  0x6d, 0x69, 0x6e, 0x5f, 0x72, 0x75, 0x6e, 0x74, 0x69, 0x6d, 0x65, 0x5f,
  0x76, 0x65, 0x72, 0x73, 0x69, 0x6f, 0x6e, 0x00, 0x14, 0x00, 0x00, 0x00,
  0x28, 0x12, 0x00, 0x00, 0x20, 0x12, 0x00, 0x00, 0x08, 0x12, 0x00, 0x00,
  0xb0, 0x11, 0x00, 0x00, 0x80, 0x11, 0x00, 0x00, 0x70, 0x0f, 0x00, 0x00,
  0x20, 0x0f, 0x00, 0x00, 0x10, 0x01, 0x00, 0x00, 0xc0, 0x00, 0x00, 0x00,
  0x80, 0x00, 0x00, 0x00, 0x64, 0x00, 0x00, 0x00, 0x5c, 0x00, 0x00, 0x00,
  0x54, 0x00, 0x00, 0x00, 0x4c, 0x00, 0x00, 0x00, 0x44, 0x00, 0x00, 0x00,
  0x3c, 0x00, 0x00, 0x00, 0x34, 0x00, 0x00, 0x00, 0x2c, 0x00, 0x00, 0x00,
  0x24, 0x00, 0x00, 0x00, 0x04, 0x00, 0x00, 0x00, 0x96, 0xed, 0xff, 0xff,
  0x04, 0x00, 0x00, 0x00, 0x10, 0x00, 0x00, 0x00, 0x31, 0x2e, 0x31, 0x34,
  0x2e, 0x30, 0x00, 0x00, 0x00, 0x00, 0x00, 0x00, 0x00, 0x00, 0x00, 0x00,
  0x24, 0xe1, 0xff, 0xff, 0x28, 0xe1, 0xff, 0xff, 0x2c, 0xe1, 0xff, 0xff,
  0x30, 0xe1, 0xff, 0xff, 0x34, 0xe1, 0xff, 0xff, 0x38, 0xe1, 0xff, 0xff,
  0x3c, 0xe1, 0xff, 0xff, 0x40, 0xe1, 0xff, 0xff, 0xd2, 0xed, 0xff, 0xff,
  0x04, 0x00, 0x00, 0x00, 0x0c, 0x00, 0x00, 0x00, 0x4b, 0xfe, 0xff, 0xff,
  0x4b, 0x00, 0x00, 0x00, 0x7b, 0x01, 0x00, 0x00, 0xea, 0xed, 0xff, 0xff,
  0x04, 0x00, 0x00, 0x00, 0x30, 0x00, 0x00, 0x00, 0x28, 0x2f, 0xc0, 0x2d,
  0x4d, 0x63, 0x0c, 0x47, 0xc1, 0x60, 0xea, 0xb1, 0x4d, 0x33, 0xb6, 0x6c,
  0x45, 0x37, 0xae, 0x77, 0xcd, 0xc8, 0x0a, 0x46, 0x00, 0x3b, 0x50, 0x18,
  0xe5, 0x12, 0x1e, 0xe2, 0xaa, 0xb0, 0x42, 0x0e, 0xb6, 0xa5, 0xf7, 0xf3,
  0x81, 0xf3, 0x72, 0x15, 0x06, 0x9d, 0xf9, 0x4e, 0x26, 0xee, 0xff, 0xff,
  0x04, 0x00, 0x00, 0x00, 0x40, 0x00, 0x00, 0x00, 0x4c, 0x00, 0x00, 0x00,
  0xc4, 0x04, 0x00, 0x00, 0x48, 0xf9, 0xff, 0xff, 0x88, 0x01, 0x00, 0x00,
  0xc5, 0x03, 0x00, 0x00, 0x2d, 0x02, 0x00, 0x00, 0x3d, 0xff, 0xff, 0xff,
  0x26, 0xfe, 0xff, 0xff, 0x5d, 0x02, 0x00, 0x00, 0xc9, 0x02, 0x00, 0x00,
  0xcb, 0x00, 0x00, 0x00, 0xc6, 0x02, 0x00, 0x00, 0xfa, 0xfe, 0xff, 0xff,
  0x8f, 0x05, 0x00, 0x00, 0xf0, 0x01, 0x00, 0x00, 0xdf, 0x04, 0x00, 0x00,
  0x72, 0xee, 0xff, 0xff, 0x04, 0x00, 0x00, 0x00, 0x00, 0x0e, 0x00, 0x00,
  0xd5, 0xdf, 0x1c, 0xe6, 0xc8, 0x0e, 0x24, 0xde, 0xfb, 0xff, 0x33, 0xf1,
  0xf6, 0xd3, 0x33, 0x24, 0xfd, 0xed, 0xed, 0xff, 0x05, 0xe8, 0x20, 0xf8,
  0xe0, 0x0e, 0x00, 0xdb, 0x04, 0xe1, 0x09, 0x24, 0x0e, 0xf2, 0x1a, 0x04,
  0xec, 0xf7, 0xf8, 0xe5, 0x18, 0xf4, 0xfd, 0x10, 0x0b, 0x15, 0x09, 0x27,
  0xf6, 0x18, 0x27, 0x1d, 0xfe, 0xfa, 0x0c, 0xfa, 0x22, 0x0f, 0xdd, 0x2b,
  0xdb, 0xec, 0xc9, 0x28, 0xec, 0xf9, 0x2c, 0xf7, 0xd9, 0xf6, 0x12, 0x0c,
  0x12, 0x2a, 0x00, 0x09, 0xd3, 0x05, 0x11, 0x03, 0xfa, 0x00, 0xed, 0xef,
  0xf6, 0x0a, 0x2f, 0x1c, 0xd1, 0x08, 0x33, 0xf6, 0x08, 0xd3, 0xea, 0x09,
  0x07, 0x0e, 0x24, 0xf9, 0x15, 0xf8, 0xf3, 0x0e, 0x12, 0x14, 0xe1, 0xe1,
  0xdd, 0xe6, 0xde, 0x13, 0xec, 0x0f, 0xe8, 0xe4, 0x02, 0x1d, 0xdb, 0x05,
  0xf5, 0x22, 0xc7, 0x08, 0xf0, 0xf4, 0x0f, 0x17, 0xf5, 0xe1, 0x0b, 0xe4,
  0xf7, 0xfe, 0x0b, 0xea, 0xdb, 0xfe, 0xf1, 0x25, 0xf2, 0x02, 0xd4, 0x15,
  0x35, 0x1a, 0x05, 0xd9, 0xf9, 0x22, 0x06, 0xdc, 0x25, 0x28, 0xf3, 0xeb,
  0xee, 0xd9, 0x08, 0x2c, 0x0e, 0x0f, 0x03, 0x23, 0xbe, 0xee, 0x14, 0xc4,
  0xe8, 0x05, 0x37, 0x1b, 0x0a, 0xf4, 0xec, 0x10, 0x32, 0xee, 0x2d, 0x01,
  0xc4, 0x1e, 0x22, 0xde, 0xf3, 0x37, 0xfd, 0x26, 0xcc, 0x40, 0x25, 0x36,
  0x4b, 0x0f, 0x17, 0xde, 0xe7, 0x06, 0x0c, 0xf5, 0x26, 0x16, 0x28, 0x18,
  0xed, 0x2e, 0x1c, 0xfb, 0x36, 0xf7, 0xe3, 0xf7, 0xcd, 0xea, 0x10, 0xd8,
  0xea, 0x20, 0x05, 0x1c, 0xdf, 0xf1, 0x3c, 0xf5, 0xfe, 0xe6, 0xe8, 0xfb,
  0xdb, 0x0f, 0xf4, 0xef, 0xd7, 0x12, 0x15, 0xff, 0xdb, 0x1e, 0x13, 0x0e,
  0x04, 0xfd, 0x25, 0xea, 0xed, 0x11, 0x19, 0x1d, 0xf0, 0xff, 0x05, 0x16,
  0xcf, 0xe3, 0xd1, 0xed, 0x0c, 0x20, 0x16, 0xd5, 0x0d, 0xeb, 0x22, 0x19,
  0x12, 0x19, 0x24, 0xf7, 0xe7, 0x05, 0x0d, 0xf1, 0xf1, 0x13, 0x30, 0x04,
  0xd3, 0xf4, 0x1a, 0x14, 0xcc, 0x08, 0xd5, 0x0d, 0xe4, 0x19, 0xd1, 0x06,
  0x0c, 0x2d, 0x18, 0xf2, 0xf4, 0xfd, 0xfb, 0xdd, 0xe3, 0xf9, 0x15, 0x26,
  0xe1, 0xf6, 0xf9, 0xe8, 0xd4, 0x1b, 0x13, 0x18, 0xf1, 0x1a, 0xf2, 0xf5,
  0xfe, 0x0e, 0xf2, 0x0b, 0x09, 0x0a, 0x05, 0x1c, 0x27, 0xec, 0x2e, 0xec,
  0x11, 0x02, 0x11, 0xf6, 0x02, 0x02, 0x03, 0x1b, 0xf5, 0x36, 0xce, 0xe7,
  0xe5, 0x0a, 0xf6, 0xfb, 0xe9, 0x27, 0x12, 0x08, 0xde, 0xf2, 0xe4, 0x0d,
  0x0a, 0x1c, 0xdd, 0x22, 0x0b, 0xf7, 0x20, 0xf8, 0xfb, 0x0a, 0x1b, 0xd3,
  0xf6, 0x18, 0xd4, 0xe7, 0xed, 0xf5, 0xf6, 0x12, 0x46, 0x34, 0x00, 0x0c,
  0xc3, 0xee, 0x05, 0xf4, 0x0d, 0xf8, 0xf8, 0x19, 0xf3, 0x16, 0xe2, 0x06,
  0x16, 0x10, 0x3a, 0x07, 0xcf, 0x0c, 0x2a, 0xd3, 0xe0, 0x3b, 0x2b, 0xf3,
  0xd7, 0x02, 0x24, 0xf1, 0x0d, 0x0f, 0xfb, 0xbf, 0xd4, 0xd2, 0x1e, 0xea,
  0x0c, 0xf3, 0x25, 0xee, 0x0e, 0xf8, 0x00, 0x45, 0x47, 0x41, 0x47, 0x07,
  0xc5, 0xca, 0x31, 0x02, 0x05, 0x17, 0x3c, 0xe9, 0x04, 0x4f, 0x45, 0x34,
  0x33, 0xff, 0x17, 0xf4, 0xfc, 0xfa, 0x42, 0xdb, 0xfa, 0xfd, 0xfd, 0x18,
  0xf6, 0xec, 0x3f, 0x38, 0xf3, 0x10, 0x3a, 0x1d, 0xf5, 0x18, 0x25, 0x19,
  0xf0, 0x1e, 0x1d, 0x0c, 0xf0, 0xee, 0xf3, 0xf2, 0x08, 0xff, 0xfa, 0x3f,
  0xf5, 0x2d, 0xd8, 0x0b, 0x0b, 0x35, 0x23, 0xe6, 0x03, 0x1a, 0x1c, 0xf8,
  0xcb, 0xfd, 0xda, 0x15, 0x11, 0xe3, 0xe4, 0x20, 0x2d, 0x39, 0x10, 0x0f,
  0x01, 0x0c, 0x00, 0xff, 0xdf, 0x12, 0xf4, 0xfe, 0x03, 0xf8, 0xd2, 0xf3,
  0x2c, 0x05, 0x17, 0xf7, 0xf1, 0x1b, 0x02, 0xfc, 0xf1, 0x05, 0xc4, 0x17,
  0x0b, 0xff, 0xe5, 0xf1, 0x02, 0x09, 0xd0, 0xe6, 0xe3, 0xb9, 0x0e, 0xe3,
  0xf6, 0x05, 0x06, 0x21, 0x1d, 0x21, 0xf3, 0x0c, 0xff, 0x18, 0x15, 0xd2,
  0xdb, 0xe3, 0xe0, 0xfc, 0xfb, 0xf5, 0xf5, 0x03, 0xd8, 0xd8, 0x1e, 0x09,
  0x29, 0x2b, 0x1e, 0x0e, 0x02, 0x17, 0x0b, 0xe1, 0x02, 0x06, 0xf8, 0x03,
  0xf1, 0x0a, 0xe8, 0xf9, 0xfe, 0x34, 0x1a, 0xf7, 0x18, 0xa2, 0xce, 0xfd,
  0x1d, 0xc6, 0x0b, 0x02, 0x2e, 0x0f, 0xe4, 0x20, 0xe8, 0x3f, 0xf8, 0xf8,
  0x1a, 0x22, 0x17, 0xff, 0x99, 0xef, 0xdb, 0xf3, 0xf5, 0x13, 0xf3, 0xfa,
  0x23, 0x35, 0xe0, 0x0e, 0x24, 0xd1, 0xf4, 0xd1, 0xdb, 0x0f, 0xdb, 0x12,
  0x06, 0x06, 0x05, 0x0a, 0x13, 0x17, 0xf3, 0x1c, 0x10, 0xfc, 0x05, 0xff,
  0xbc, 0xf4, 0xd6, 0xec, 0xf2, 0x07, 0xe4, 0xed, 0xe4, 0x30, 0xf5, 0xf0,
  0x03, 0xb7, 0x1d, 0xf2, 0xb4, 0xd3, 0xb5, 0x2e, 0x1e, 0xf9, 0xf5, 0xf2,
  0x0c, 0x17, 0xf9, 0xf6, 0x06, 0xb4, 0xeb, 0xd2, 0xd2, 0xf4, 0xcf, 0xf9,
  0x05, 0x0c, 0xf7, 0x0e, 0xf9, 0x41, 0xce, 0x2e, 0xfe, 0x1b, 0xa3, 0xf9,
  0x1e, 0x0b, 0xf5, 0x0e, 0xf4, 0xdd, 0x0b, 0xe6, 0x1d, 0x0c, 0xf4, 0x32,
  0xe9, 0x08, 0x45, 0x06, 0x18, 0x19, 0xdf, 0x10, 0x0c, 0xdc, 0x29, 0xe1,
  0x15, 0xd8, 0x0f, 0x08, 0xd4, 0x37, 0x10, 0xe4, 0xf3, 0xf8, 0xf2, 0xfa,
  0xe4, 0xf8, 0xec, 0xeb, 0x07, 0x17, 0xe9, 0x21, 0x03, 0x3b, 0xf2, 0xf3,
  0x1c, 0x09, 0x0e, 0xd8, 0x03, 0xd6, 0xfd, 0xee, 0x25, 0xf2, 0xe9, 0x10,
  0x15, 0xe7, 0xf6, 0xf1, 0x39, 0xe3, 0x00, 0x0b, 0xc5, 0xea, 0x2c, 0xd2,
  0x01, 0x21, 0xe3, 0x25, 0xc6, 0x03, 0x13, 0xe8, 0xe5, 0xe4, 0x15, 0x18,
  0xfd, 0xd6, 0x1d, 0xd5, 0xff, 0xef, 0xfa, 0x26, 0x03, 0xd8, 0xea, 0x26,
  0x27, 0x19, 0x19, 0xee, 0xcc, 0xd7, 0x0d, 0xf7, 0xe7, 0x15, 0x06, 0x27,
  0x0d, 0x42, 0xf2, 0xe2, 0x24, 0xd6, 0x18, 0x1c, 0xd2, 0xed, 0x24, 0xe0,
  0xea, 0x21, 0xf6, 0x20, 0x2a, 0xfd, 0x07, 0xf8, 0x2a, 0x18, 0xcd, 0xd9,
  0x0d, 0xd3, 0x00, 0xf6, 0xf5, 0xec, 0x04, 0x2a, 0x1b, 0x17, 0xed, 0xed,
  0x5a, 0xf8, 0xe7, 0xdf, 0xe2, 0xe2, 0x38, 0xe4, 0xe2, 0x27, 0x06, 0x44,
  0x00, 0xf4, 0x0d, 0xff, 0x16, 0xf2, 0x01, 0x26, 0xbb, 0xe1, 0x0d, 0xec,
  0x1e, 0x1d, 0xdd, 0x4c, 0xf0, 0xf2, 0x1a, 0x0b, 0x37, 0xf3, 0xf8, 0xf6,
  0xe7, 0xde, 0xfc, 0xf1, 0x43, 0x2b, 0x03, 0x2d, 0xe5, 0xfa, 0x1e, 0x09,
  0x7f, 0xe9, 0x22, 0x14, 0xbc, 0xf5, 0x3d, 0xf3, 0x27, 0x00, 0x0b, 0x24,
  0xe7, 0x0c, 0xfe, 0xfa, 0x54, 0x0a, 0xf3, 0xf5, 0xcf, 0xf9, 0x38, 0xd3,
  0x1c, 0x2f, 0xf6, 0x56, 0xe6, 0xf2, 0x10, 0x1b, 0x18, 0x0a, 0xfe, 0xdc,
  0x23, 0x12, 0x19, 0x0e, 0xee, 0xfc, 0xe6, 0xe3, 0xfb, 0xde, 0xf7, 0x0a,
  0xf4, 0x2f, 0x1d, 0xe7, 0xf0, 0x1c, 0xe8, 0x15, 0xfe, 0xed, 0x16, 0xee,
  0xf0, 0xf2, 0xf5, 0x04, 0xc7, 0x17, 0xf9, 0x05, 0x05, 0xf5, 0xd9, 0xe9,
  0xf4, 0x14, 0xf7, 0xf4, 0xee, 0x08, 0xea, 0xff, 0xe9, 0xfc, 0xdc, 0x2a,
  0xe6, 0xdf, 0x28, 0x03, 0xe8, 0xe4, 0xdc, 0xc0, 0xeb, 0xf6, 0xf7, 0x12,
  0xe5, 0xda, 0x2c, 0x30, 0x13, 0x19, 0x03, 0xfe, 0x2b, 0x0c, 0xf9, 0xd9,
  0x21, 0xfe, 0x00, 0x22, 0xce, 0x2d, 0x1a, 0x1c, 0x2c, 0x0d, 0xf1, 0x29,
  0xec, 0x05, 0x21, 0xf6, 0x07, 0x22, 0x0f, 0xfc, 0xed, 0x24, 0xef, 0x0f,
  0xf7, 0x19, 0xe6, 0x05, 0x00, 0xdd, 0xfa, 0xe2, 0xf8, 0xe3, 0xf5, 0x11,
  0xee, 0x1a, 0x16, 0x17, 0x01, 0x23, 0xf7, 0x3d, 0x1a, 0x1d, 0x28, 0xcd,
  0xf1, 0xd4, 0x15, 0x16, 0xff, 0x0a, 0x19, 0x08, 0x27, 0x06, 0xca, 0xf4,
  0x0e, 0x15, 0x0c, 0xe2, 0x2d, 0xd6, 0xc3, 0xfa, 0xe8, 0x15, 0xf0, 0xff,
  0x14, 0xd2, 0xd0, 0x00, 0x03, 0x0b, 0xfc, 0xbb, 0xe4, 0x0a, 0xcc, 0x20,
  0xee, 0x07, 0xe7, 0xcc, 0xf8, 0xd8, 0xd8, 0x12, 0xe6, 0xe6, 0x14, 0xdf,
  0xe4, 0xf0, 0xe9, 0x25, 0xeb, 0xf8, 0xfc, 0x05, 0x02, 0x1d, 0xff, 0x2d,
  0xdc, 0xe7, 0x01, 0xda, 0x08, 0xdd, 0x14, 0x25, 0xd4, 0x31, 0x30, 0xe1,
  0x16, 0x20, 0xc6, 0xee, 0x0f, 0x0e, 0x42, 0xb6, 0xe6, 0xee, 0xdd, 0x16,
  0xa9, 0x15, 0x3e, 0xed, 0x13, 0xe4, 0xfb, 0xe1, 0xd0, 0xed, 0x43, 0xa6,
  0xe6, 0x0b, 0x2a, 0x22, 0xe2, 0x3e, 0x29, 0x1a, 0xf3, 0x1f, 0xf6, 0x10,
  0xe0, 0xf4, 0xe4, 0xd5, 0x0f, 0x10, 0x1e, 0xf2, 0xc4, 0x03, 0x21, 0x06,
  0x02, 0xed, 0xff, 0xe2, 0xf1, 0x03, 0xec, 0x17, 0xfc, 0xd3, 0xfb, 0xf1,
  0xf9, 0xe5, 0xcf, 0x15, 0xe4, 0xdb, 0xc9, 0x07, 0x14, 0xd6, 0x03, 0xc9,
  0xfa, 0x08, 0xe9, 0x18, 0x19, 0xf6, 0xe5, 0xdc, 0x04, 0xd1, 0xeb, 0x34,
  0xe1, 0xf3, 0xe1, 0xf6, 0x12, 0xff, 0x0c, 0x18, 0x00, 0x22, 0xfb, 0x02,
  0x25, 0xeb, 0xe1, 0xea, 0xf0, 0x02, 0x0e, 0xe3, 0x01, 0xfc, 0xf9, 0xf2,
  0xd8, 0xf8, 0x0a, 0xe9, 0xf9, 0x20, 0xf8, 0xfa, 0xe9, 0x19, 0xdc, 0x05,
  0xf8, 0x06, 0xf6, 0x22, 0x10, 0x07, 0x00, 0x23, 0x20, 0x0b, 0xf9, 0x38,
  0xd5, 0xef, 0xe4, 0x06, 0xe8, 0xfc, 0x14, 0x1b, 0xd7, 0xfa, 0x29, 0xf7,
  0x35, 0x1b, 0x01, 0x06, 0x23, 0xed, 0x1c, 0xda, 0xf2, 0xd9, 0xce, 0x2f,
  0xeb, 0x26, 0xe9, 0xdc, 0x10, 0xef, 0xf1, 0xfb, 0x06, 0x00, 0x18, 0xec,
  0x22, 0x04, 0xca, 0x08, 0xea, 0x2a, 0x0b, 0x18, 0x02, 0xf9, 0x15, 0xef,
  0x17, 0xf8, 0xdd, 0xfa, 0xe4, 0x0b, 0xd3, 0x2b, 0xcc, 0x13, 0x0e, 0xe9,
  0xf7, 0xe7, 0xe2, 0x0d, 0x13, 0xf7, 0xea, 0xca, 0xc5, 0x19, 0x1b, 0x17,
  0x08, 0x22, 0x1d, 0xdc, 0x0f, 0x01, 0x0a, 0x18, 0xdb, 0x1f, 0x27, 0xd8,
  0xd3, 0xd8, 0x08, 0xee, 0x9a, 0x41, 0x22, 0xed, 0xfe, 0xee, 0xf4, 0xcd,
  0xd9, 0x20, 0x14, 0xb6, 0xe4, 0x16, 0xf2, 0x4c, 0xdf, 0x34, 0x0e, 0xbf,
  0x21, 0x14, 0xd9, 0xeb, 0x07, 0x0b, 0x33, 0xc5, 0xf0, 0x04, 0xfe, 0x1d,
  0x18, 0xf4, 0xe7, 0xeb, 0xdd, 0xd7, 0x03, 0xe4, 0x0b, 0xe3, 0x11, 0x0c,
  0xef, 0xf0, 0x0f, 0x1d, 0xff, 0x23, 0xf6, 0xdc, 0xea, 0xd8, 0xed, 0x0d,
  0x13, 0x0c, 0xd7, 0xee, 0xd8, 0xd5, 0x07, 0xd4, 0x11, 0xdf, 0xe1, 0xf5,
  0xe6, 0xf9, 0xdd, 0xf6, 0x1b, 0xe7, 0x14, 0xf8, 0x10, 0x1d, 0x11, 0x12,
  0xe1, 0xd8, 0xef, 0x26, 0x08, 0xf8, 0x0b, 0x0a, 0x0c, 0x1e, 0xf4, 0xd7,
  0xec, 0x13, 0xfc, 0x1f, 0xf1, 0xe7, 0xe4, 0xe8, 0xde, 0x26, 0x1c, 0xf9,
  0xef, 0x21, 0xfe, 0xe7, 0xfb, 0x19, 0x24, 0x10, 0xf0, 0xe2, 0x13, 0xec,
  0x19, 0x16, 0xe1, 0x1d, 0x0f, 0xe9, 0x01, 0xf5, 0xeb, 0x03, 0xe3, 0xea,
  0xe7, 0x14, 0x23, 0xf8, 0x21, 0xea, 0xf9, 0x0c, 0xe1, 0xf3, 0xeb, 0x06,
  0x04, 0x23, 0x23, 0x0b, 0x03, 0x00, 0xe9, 0x0d, 0xe5, 0x14, 0xdc, 0xfd,
  0x10, 0xf6, 0x05, 0xdd, 0xf4, 0x1c, 0x0a, 0xe4, 0xf6, 0xee, 0xdd, 0xe4,
  0xeb, 0xdb, 0x1f, 0xf9, 0x15, 0xf6, 0xfa, 0x21, 0x04, 0xe4, 0x03, 0xe4,
  0xe1, 0xde, 0x25, 0xff, 0xf2, 0x02, 0xec, 0x0c, 0xd6, 0xe0, 0x0e, 0xfa,
  0xe0, 0xd7, 0xf5, 0x22, 0x26, 0xea, 0x23, 0xd9, 0xd5, 0xd6, 0x02, 0xf9,
  0x0e, 0x05, 0xf2, 0xf3, 0x10, 0x02, 0x0d, 0x1d, 0x06, 0x1e, 0x23, 0xe0,
  0x19, 0xfb, 0xd5, 0xdf, 0xfd, 0x1a, 0xe0, 0x0e, 0xe6, 0x05, 0x03, 0xe7,
  0xd9, 0xf9, 0xd9, 0xe2, 0xd7, 0x0f, 0x04, 0xea, 0x06, 0xe8, 0x15, 0x07,
  0x08, 0xe3, 0xde, 0xe7, 0xee, 0x02, 0x0b, 0xd6, 0xe6, 0xdd, 0x1e, 0xf3,
  0x26, 0xdc, 0x0f, 0xe7, 0x17, 0x17, 0xf4, 0x1b, 0x11, 0xea, 0xea, 0xdd,
  0x15, 0x00, 0xec, 0xd4, 0xfd, 0xe1, 0xff, 0x00, 0xd9, 0x09, 0x1e, 0xe3,
  0x01, 0xe3, 0xdf, 0xf2, 0xd8, 0xf6, 0xe5, 0xe9, 0xd6, 0x11, 0xec, 0x0f,
  0x18, 0xf6, 0x24, 0x26, 0xee, 0xe1, 0xd2, 0xf6, 0x1c, 0xed, 0xd6, 0xf9,
  0xf5, 0xee, 0x10, 0x11, 0xfc, 0xee, 0xe5, 0xfe, 0xf8, 0x08, 0x02, 0x19,
  0xe9, 0xd2, 0x1c, 0xed, 0xe0, 0xea, 0xe2, 0xed, 0x16, 0x25, 0x20, 0xf4,
  0xd5, 0x19, 0xd8, 0x0c, 0xe7, 0xf5, 0x1b, 0x15, 0x25, 0x07, 0x23, 0xf3,
  0x05, 0xe4, 0xf5, 0xe9, 0x1e, 0xe5, 0xd9, 0xe3, 0x04, 0xd8, 0xff, 0xfd,
  0xe0, 0xdf, 0xec, 0xdf, 0xd9, 0x1e, 0xfa, 0xf2, 0x1c, 0x24, 0xe4, 0x0c,
  0xd4, 0x01, 0xda, 0x0c, 0xea, 0x0d, 0x26, 0xf0, 0x1a, 0x1a, 0x01, 0xe3,
  0x02, 0xf9, 0x1d, 0xce, 0x16, 0xec, 0xe7, 0xfb, 0x03, 0x11, 0xe3, 0x21,
  0xda, 0xe6, 0x05, 0x25, 0x0a, 0x05, 0xf4, 0xf5, 0xe4, 0xde, 0xd9, 0x14,
  0xd1, 0xe2, 0xdd, 0x00, 0xd7, 0xe7, 0x1b, 0xfd, 0xe3, 0x10, 0x21, 0xdd,
  0xe7, 0xdb, 0xfe, 0xda, 0xe2, 0xe8, 0x0f, 0xe7, 0xe3, 0xec, 0x05, 0xd8,
  0x22, 0xdc, 0xf5, 0xd3, 0xdc, 0x0a, 0xef, 0x1e, 0x02, 0x0d, 0xed, 0xf3,
  0xe0, 0x16, 0xec, 0x02, 0x21, 0xdd, 0xf9, 0x26, 0xf5, 0xf1, 0x01, 0xdc,
  0xe0, 0xe7, 0x02, 0x02, 0xd1, 0x0a, 0x0c, 0x14, 0xe8, 0xfd, 0xde, 0xe6,
  0xe2, 0x16, 0xde, 0x18, 0xdf, 0xf0, 0x07, 0x17, 0xfe, 0x03, 0xee, 0x16,
  0xf6, 0x0e, 0xd1, 0x07, 0xe7, 0xdf, 0x01, 0x16, 0x0a, 0xd7, 0x0a, 0xf1,
  0xf2, 0x06, 0x0e, 0x18, 0x15, 0xf7, 0xf8, 0xec, 0xb2, 0xfa, 0x10, 0x03,
  0x0c, 0x29, 0x09, 0x1b, 0x01, 0xe9, 0x06, 0xf1, 0x04, 0x05, 0xee, 0x17,
  0xe4, 0x1d, 0x0f, 0x0b, 0xdc, 0x08, 0xca, 0x04, 0xfb, 0xea, 0xf3, 0x04,
  0xea, 0x05, 0x22, 0x0a, 0xcd, 0xe0, 0x07, 0xcf, 0xf6, 0x27, 0x13, 0x12,
  0xf4, 0x14, 0x1d, 0xf8, 0x15, 0x1d, 0x2b, 0xfc, 0xfd, 0x12, 0xf3, 0xd3,
  0xde, 0x22, 0xe8, 0x3f, 0xd6, 0x04, 0x12, 0x1f, 0xfa, 0xe6, 0x31, 0xf4,
  0xf5, 0x12, 0xf2, 0xf4, 0xe2, 0xe9, 0x01, 0x19, 0xd8, 0xff, 0xfc, 0x1b,
  0x16, 0xe5, 0xe5, 0xfc, 0x0d, 0xe3, 0xf6, 0xeb, 0xd9, 0x23, 0x16, 0x15,
  0xe0, 0xd0, 0x1a, 0xfb, 0x0b, 0x02, 0x11, 0x0b, 0xfd, 0xdf, 0x1c, 0xe3,
  0x05, 0xfb, 0xd0, 0xed, 0x06, 0x23, 0xd9, 0xda, 0xf3, 0x06, 0xf2, 0xe4,
  0xf2, 0xef, 0xef, 0xe6, 0x0d, 0x02, 0xc9, 0x11, 0x0d, 0xfa, 0x1b, 0xd4,
  0x06, 0xf4, 0xed, 0xf7, 0x0c, 0xcb, 0x1e, 0xf8, 0xe1, 0x1f, 0x0f, 0x23,
  0xcc, 0xfe, 0xfb, 0x1c, 0x47, 0xf6, 0xfa, 0x07, 0xf1, 0x11, 0xfb, 0xd1,
  0x1d, 0x06, 0x06, 0x29, 0xd4, 0xf3, 0x1f, 0xe0, 0x0a, 0xe3, 0x21, 0x06,
  0xd9, 0xf3, 0x1c, 0xca, 0x2e, 0x4a, 0xf0, 0x51, 0xf8, 0x19, 0xfc, 0x18,
  0x17, 0x01, 0xf2, 0xe5, 0xe1, 0xff, 0x17, 0xe6, 0x2b, 0x34, 0x31, 0x23,
  0x03, 0x3a, 0x2b, 0xf4, 0x5b, 0x0f, 0x31, 0xd9, 0xe4, 0xef, 0x3b, 0xca,
  0x11, 0x17, 0x20, 0x3a, 0x03, 0x24, 0x45, 0xff, 0x4f, 0xf3, 0x07, 0x27,
  0xed, 0xfc, 0x35, 0xf2, 0xea, 0x10, 0x13, 0x29, 0xf0, 0xeb, 0x2a, 0x1c,
  0xee, 0x1e, 0x10, 0x09, 0x0a, 0xfc, 0x1f, 0x12, 0x07, 0x10, 0xf4, 0xea,
  0x11, 0xec, 0x0f, 0x05, 0xf9, 0xea, 0x31, 0xdf, 0x10, 0xfe, 0xda, 0x1e,
  0xeb, 0x09, 0x08, 0xee, 0xca, 0x05, 0xd2, 0x0e, 0x30, 0xe1, 0x1b, 0x10,
  0xe4, 0x11, 0x2b, 0xf0, 0x09, 0xd9, 0x1d, 0x00, 0x18, 0xfe, 0x0f, 0x22,
  0x21, 0x17, 0x32, 0xe0, 0x15, 0x06, 0x2c, 0xee, 0xe7, 0x0a, 0xeb, 0xf0,
  0xeb, 0xcc, 0xc8, 0x3c, 0xd5, 0x01, 0x38, 0x14, 0xea, 0xe2, 0xe7, 0x19,
  0xfa, 0xf8, 0xf9, 0x02, 0xd6, 0x08, 0x24, 0xef, 0xf3, 0xfa, 0x18, 0x1f,
  0xfb, 0xdf, 0x18, 0xd9, 0xee, 0x2f, 0x1a, 0x1b, 0xfc, 0x09, 0x02, 0x43,
  0xfd, 0x03, 0x33, 0x07, 0xe8, 0x09, 0xfc, 0x0e, 0xba, 0x09, 0x24, 0xe6,
  0xd3, 0xb9, 0xd0, 0x08, 0xeb, 0x0a, 0x1a, 0xf0, 0xfa, 0x1a, 0xe5, 0xff,
  0xe3, 0x1e, 0x0b, 0xcd, 0xe3, 0xe5, 0xf1, 0x01, 0x00, 0xf5, 0x22, 0xf5,
  0xeb, 0x03, 0xee, 0x2c, 0xe7, 0xe2, 0xd1, 0x0c, 0x1f, 0xf4, 0xd2, 0x05,
  0x0a, 0x16, 0x49, 0x00, 0xe4, 0x0f, 0xf3, 0xf3, 0x0c, 0x2b, 0xf4, 0x0c,
  0xed, 0x25, 0xe6, 0x06, 0xf5, 0x27, 0x10, 0x14, 0x0a, 0x0d, 0x2e, 0xfd,
  0xca, 0x19, 0x18, 0xd5, 0xc5, 0x25, 0x02, 0x17, 0xd3, 0x14, 0xed, 0xcc,
  0xf5, 0x02, 0x0a, 0xf4, 0x15, 0x18, 0x1b, 0xe2, 0x1a, 0xe9, 0xf3, 0x2f,
  0xee, 0x31, 0x16, 0xee, 0x03, 0xf2, 0xf8, 0xcf, 0x0f, 0xed, 0x07, 0xbe,
  0xe2, 0x0d, 0x03, 0x2a, 0xc2, 0x23, 0xfd, 0xfe, 0xef, 0xe4, 0xda, 0x06,
  0xfc, 0x21, 0x1d, 0xf4, 0xff, 0xd3, 0x1a, 0x07, 0x1e, 0x0a, 0xdc, 0x11,
  0xce, 0xe2, 0xf0, 0x0c, 0x09, 0x29, 0x04, 0x02, 0x2a, 0x41, 0x1d, 0xdc,
  0x50, 0xd3, 0xec, 0x0b, 0x2e, 0x14, 0x28, 0xe5, 0x28, 0x25, 0x1f, 0x19,
  0x0f, 0x36, 0x3d, 0xef, 0x3d, 0xd7, 0xe3, 0x1e, 0x17, 0xe4, 0x03, 0xdf,
  0xec, 0x22, 0xee, 0x28, 0x1b, 0xd0, 0x27, 0x1e, 0x3c, 0x10, 0xf2, 0xff,
  0x0c, 0xd0, 0xe1, 0xe4, 0x25, 0x00, 0x14, 0x29, 0x09, 0x2b, 0x07, 0xfe,
  0x2d, 0xd4, 0xd3, 0x02, 0xcb, 0xe7, 0xe5, 0xfc, 0xda, 0xf8, 0x09, 0x11,
  0x02, 0x09, 0x11, 0xd3, 0x2b, 0xf8, 0xfd, 0xda, 0x0d, 0x1a, 0x11, 0xd0,
  0x26, 0x0b, 0xe2, 0xfd, 0xfd, 0x0f, 0x1f, 0xfc, 0x03, 0xed, 0x02, 0x04,
  0x11, 0xef, 0xff, 0xdd, 0x00, 0x2a, 0x25, 0x0c, 0x04, 0x11, 0x13, 0xef,
  0x28, 0xdd, 0xd7, 0x0c, 0xe0, 0xf3, 0x0e, 0x01, 0x20, 0xe9, 0x01, 0x3b,
  0xf5, 0x06, 0x13, 0xf2, 0x3e, 0xe0, 0x16, 0xfd, 0x14, 0xe1, 0x16, 0x12,
  0x04, 0x0d, 0xf8, 0x2c, 0x0e, 0x22, 0x49, 0xdf, 0x31, 0x04, 0xcc, 0x35,
  0xe2, 0x14, 0x49, 0x12, 0xf0, 0xfe, 0x1e, 0x1a, 0x17, 0xe9, 0x1b, 0x01,
  0x32, 0xfe, 0xe2, 0x1e, 0xd0, 0xf5, 0xeb, 0xe8, 0x23, 0x2d, 0x07, 0x4b,
  0x32, 0x10, 0x27, 0xf2, 0x0d, 0x00, 0xe0, 0xf6, 0xeb, 0xee, 0x18, 0xe9,
  0x22, 0xf8, 0x26, 0x42, 0x28, 0x2b, 0x17, 0xfe, 0x13, 0x05, 0x02, 0x1b,
  0x02, 0xfd, 0x39, 0x2d, 0xf2, 0x15, 0xe1, 0x38, 0x41, 0x1a, 0x01, 0xec,
  0x11, 0xe0, 0x0e, 0x47, 0x03, 0x04, 0xf3, 0x29, 0x33, 0x07, 0xda, 0x19,
  0x3e, 0x06, 0x16, 0xbe, 0x1e, 0x07, 0xd1, 0x0e, 0xec, 0xd4, 0x0b, 0xe0,
  0x2e, 0x15, 0xc2, 0x41, 0x0b, 0x22, 0x12, 0xec, 0x14, 0xfd, 0xd0, 0xdf,
  0x00, 0x0a, 0x2f, 0xf6, 0xeb, 0xf0, 0xd5, 0x2b, 0xfd, 0x11, 0x2f, 0xf1,
  0x68, 0xd3, 0xe6, 0xef, 0xdf, 0x21, 0x1c, 0x28, 0xfc, 0xf3, 0xe8, 0x32,
  0x40, 0x02, 0xe4, 0x1d, 0x0c, 0xef, 0x01, 0x03, 0x0e, 0x01, 0xff, 0x13,
  0x1e, 0x16, 0xfc, 0x04, 0xfd, 0x40, 0x11, 0x0b, 0x23, 0xe8, 0xf2, 0x10,
  0xf6, 0x0a, 0x0b, 0xea, 0x24, 0x1e, 0x2f, 0x3a, 0x25, 0x26, 0xfe, 0xf3,
  0x5a, 0xe3, 0x1f, 0xff, 0x21, 0x0f, 0x28, 0xe2, 0x09, 0x1d, 0x17, 0x0a,
  0xe2, 0xf5, 0x0f, 0xd3, 0xf6, 0xce, 0xe2, 0xec, 0x01, 0x02, 0x23, 0xd8,
  0x38, 0xe8, 0xea, 0x03, 0x08, 0x0c, 0x17, 0x18, 0x42, 0xd7, 0xf7, 0xe7,
  0xd6, 0x0d, 0x17, 0xe6, 0x34, 0x17, 0x09, 0x2f, 0x0d, 0x1c, 0x0e, 0x15,
  0x01, 0xed, 0xdd, 0xe2, 0x00, 0xd1, 0x1d, 0xe1, 0xda, 0xfc, 0xf4, 0x39,
  0xeb, 0x27, 0x09, 0xcf, 0x48, 0xf9, 0xeb, 0xf2, 0xde, 0xe5, 0x2d, 0x17,
  0x16, 0x1d, 0xe2, 0x34, 0xf2, 0xd6, 0x27, 0x08, 0x06, 0xfc, 0x2f, 0xfa,
  0xdf, 0xf1, 0xef, 0xf2, 0x34, 0xf8, 0xfa, 0x12, 0xfa, 0x0a, 0x1d, 0xdb,
  0x19, 0xff, 0x22, 0x0c, 0x2b, 0x0e, 0x2c, 0x31, 0x2c, 0x08, 0xed, 0x35,
  0x01, 0x41, 0x19, 0xda, 0x6b, 0xeb, 0x01, 0x3f, 0x02, 0xf3, 0x14, 0xeb,
  0x2d, 0xfa, 0xd1, 0x3f, 0x2b, 0x19, 0x2f, 0xf3, 0x59, 0xf0, 0xd0, 0x44,
  0x1d, 0x1f, 0x26, 0x11, 0x1b, 0x19, 0x03, 0x33, 0x3a, 0xf8, 0x14, 0xd0,
  0x09, 0xec, 0x11, 0xe3, 0xf2, 0xf0, 0xe0, 0xf5, 0x0a, 0x22, 0xfb, 0x0a,
  0x25, 0xe0, 0x1a, 0xfd, 0xd9, 0x20, 0x0f, 0xd4, 0xdc, 0xe8, 0xea, 0x20,
  0xde, 0xe1, 0xff, 0xf4, 0xfe, 0x08, 0xf5, 0xdc, 0xd6, 0x1b, 0xe5, 0xf9,
  0xee, 0x1a, 0xdb, 0xf1, 0xe0, 0xfa, 0xea, 0xe3, 0xfd, 0x22, 0xfd, 0xda,
  0x1b, 0xf1, 0x08, 0x1b, 0xe1, 0xf9, 0xec, 0xdb, 0xf7, 0xe1, 0x0a, 0xf1,
  0xdc, 0x0f, 0x1c, 0xe9, 0x15, 0xe0, 0xdc, 0x0b, 0x07, 0xe3, 0xd3, 0x06,
  0x09, 0xd8, 0x0f, 0xda, 0x22, 0x04, 0xf1, 0xf6, 0xda, 0xf1, 0x10, 0xfb,
  0x09, 0x18, 0xf8, 0xdb, 0xf6, 0x07, 0xe4, 0xfa, 0xf2, 0xeb, 0x03, 0xf3,
  0x05, 0x1f, 0xf9, 0xd4, 0x10, 0xec, 0xe6, 0xe9, 0xeb, 0x0c, 0xe8, 0x09,
  0x0f, 0xfb, 0xd6, 0xff, 0x09, 0x17, 0x10, 0xed, 0xf6, 0xf0, 0x0d, 0xfd,
  0x0a, 0x12, 0xe0, 0x25, 0x21, 0x10, 0xf6, 0x07, 0x0b, 0xe1, 0x19, 0xf8,
  0xd7, 0xfe, 0xe3, 0xed, 0x23, 0xe5, 0x09, 0x04, 0x00, 0xf1, 0x01, 0xec,
  0xf2, 0xdf, 0x0f, 0xdf, 0xe8, 0xfb, 0x0d, 0xeb, 0xf2, 0x10, 0xe8, 0x1b,
  0x10, 0x10, 0xef, 0xe5, 0xd6, 0x0f, 0x01, 0x00, 0x0f, 0xd8, 0xe5, 0xfa,
  0x02, 0xfc, 0xdb, 0xfa, 0x14, 0xe9, 0x23, 0xfa, 0x20, 0x20, 0xf6, 0xd8,
  0xf7, 0xeb, 0xec, 0xf4, 0x27, 0x24, 0xfa, 0xdf, 0xf8, 0xfd, 0x07, 0xe5,
  0x0f, 0xdd, 0x01, 0x15, 0xe8, 0xe4, 0x0e, 0xf2, 0x15, 0xe5, 0xfc, 0x06,
  0x22, 0xd9, 0xde, 0x1b, 0xf5, 0x14, 0xfd, 0xf0, 0x1a, 0xde, 0x15, 0xf4,
  0xfd, 0xe2, 0xd8, 0xfd, 0x11, 0xde, 0xe6, 0xf0, 0xda, 0x11, 0x18, 0xe5,
  0x23, 0x24, 0xef, 0xfb, 0xe7, 0x10, 0xce, 0xf9, 0xde, 0xff, 0xe9, 0x17,
  0xd7, 0x4a, 0x0e, 0xd3, 0xd4, 0x19, 0x00, 0xef, 0xf2, 0x0d, 0x0f, 0x08,
  0xe4, 0xb1, 0xce, 0x35, 0xfd, 0x13, 0x07, 0xed, 0x11, 0x0e, 0xd3, 0xee,
  0xf9, 0xff, 0x02, 0xc2, 0x08, 0x22, 0x10, 0x24, 0xea, 0x12, 0x11, 0xfa,
  0x29, 0xf1, 0x24, 0x10, 0xf0, 0xea, 0x11, 0xd6, 0xfd, 0xf3, 0xfb, 0xf0,
  0xe2, 0x0f, 0x13, 0x10, 0xf5, 0xef, 0xeb, 0x27, 0x23, 0xf6, 0x26, 0x04,
  0xf3, 0x32, 0xd9, 0x19, 0xf9, 0xf5, 0x23, 0xff, 0x0f, 0xe8, 0xe1, 0x13,
  0xfc, 0x0e, 0xd6, 0xfa, 0xf4, 0xfe, 0x06, 0x25, 0x13, 0xf1, 0x3d, 0xf2,
  0x23, 0x06, 0xd8, 0x1a, 0xeb, 0x1d, 0xde, 0xcc, 0x22, 0xda, 0xa9, 0x1b,
  0x21, 0x19, 0x27, 0xe2, 0x18, 0x01, 0xef, 0x0c, 0xf7, 0xef, 0x21, 0xeb,
  0xe5, 0x3f, 0x21, 0x37, 0xfb, 0x30, 0x28, 0xdd, 0x1b, 0x04, 0xf8, 0xf5,
  0xe0, 0xe9, 0xe3, 0xe8, 0x13, 0xe4, 0xb2, 0x24, 0x16, 0x12, 0x10, 0xdc,
  0xf9, 0xf6, 0xfa, 0xfe, 0xc2, 0x00, 0xda, 0xe0, 0xd0, 0xf1, 0xc4, 0x3c,
  0x09, 0x0e, 0x05, 0xd9, 0xe2, 0xfa, 0x1a, 0xe7, 0xcc, 0xea, 0x39, 0xfb,
  0xde, 0x21, 0xf6, 0x37, 0x2a, 0x1f, 0x2e, 0xd7, 0x25, 0x11, 0xff, 0x1a,
  0xfe, 0xfe, 0x0f, 0xe6, 0xeb, 0xe4, 0x09, 0x2c, 0xde, 0x1a, 0x52, 0x1b,
  0xe9, 0x21, 0xe7, 0x07, 0xf5, 0x22, 0x32, 0x09, 0xd5, 0x21, 0x47, 0x30,
  0x0d, 0xfd, 0x0d, 0xdd, 0x07, 0x37, 0x22, 0x20, 0xe6, 0xd5, 0x28, 0xb0,
  0x1d, 0xe3, 0x18, 0x15, 0x1c, 0xe4, 0xf1, 0xfb, 0xd1, 0xb6, 0xde, 0xc0,
  0x0d, 0x04, 0x05, 0xd6, 0xc8, 0xf4, 0x02, 0xd0, 0x5a, 0x22, 0xed, 0x11,
  0xda, 0xc6, 0xd4, 0xfa, 0xed, 0xf1, 0x22, 0xee, 0xe8, 0x22, 0x05, 0xf3,
  0xc1, 0xe2, 0xe4, 0x38, 0xe7, 0xeb, 0x23, 0xdb, 0xfe, 0xe7, 0x05, 0x36,
  0x20, 0x21, 0x4b, 0xfd, 0x27, 0x07, 0x04, 0xf3, 0xfb, 0xde, 0x01, 0xf2,
  0xfd, 0xfd, 0xfd, 0x06, 0xf2, 0x35, 0x09, 0x0d, 0xf3, 0x16, 0x1f, 0x2f,
  0xff, 0x00, 0xe5, 0xe2, 0x0f, 0x25, 0x38, 0x4b, 0x13, 0x33, 0x4e, 0x1b,
  0x4f, 0x12, 0xdd, 0xfd, 0xdd, 0xf3, 0x1d, 0xdb, 0x26, 0xf7, 0xd4, 0x0c,
  0xeb, 0x2f, 0x01, 0xee, 0x59, 0x06, 0xf9, 0xff, 0xd3, 0xf6, 0xfd, 0xe3,
  0xf7, 0xf4, 0xe6, 0xfe, 0x1c, 0x15, 0x0d, 0xcb, 0x03, 0xe5, 0xf6, 0x1e,
  0xdd, 0x20, 0x2d, 0xdc, 0x3c, 0x0d, 0x18, 0x20, 0x2d, 0x08, 0x25, 0x02,
  0x46, 0xf3, 0x16, 0x10, 0xe1, 0xfa, 0x25, 0x18, 0xe9, 0xe5, 0x17, 0x32,
  0xdc, 0x05, 0x31, 0x00, 0x03, 0x08, 0x1f, 0x07, 0xcb, 0xea, 0xed, 0x0e,
  0xff, 0xfc, 0x14, 0x58, 0xf5, 0x29, 0x34, 0xdc, 0x53, 0x02, 0x2d, 0xd4,
  0xbf, 0x05, 0xf7, 0xc9, 0x15, 0xde, 0xec, 0xf9, 0x17, 0x0c, 0x33, 0xd6,
  0x18, 0x0c, 0xef, 0x13, 0xe5, 0xe3, 0x11, 0xf8, 0xed, 0x0e, 0x22, 0x1c,
  0xff, 0xe1, 0x13, 0xf0, 0x6b, 0xdf, 0xe8, 0xff, 0xee, 0x0b, 0xde, 0x03,
  0x04, 0xfa, 0xe0, 0x58, 0xf9, 0xfd, 0x28, 0xf9, 0x37, 0xe7, 0x02, 0x2f,
  0xc5, 0xda, 0xf3, 0x02, 0x0f, 0x34, 0x24, 0x24, 0x14, 0xe6, 0x12, 0x12,
  0xea, 0x0a, 0x06, 0xe1, 0x11, 0xf7, 0x4a, 0xd8, 0xe9, 0xe7, 0x18, 0xf4,
  0x27, 0x04, 0x0a, 0xea, 0xf3, 0x15, 0x1b, 0xce, 0xe2, 0xf3, 0x02, 0x1b,
  0x1f, 0x26, 0x12, 0x02, 0xc3, 0xb3, 0xf1, 0x3a, 0x03, 0x0c, 0xdd, 0x02,
  0xfd, 0xd8, 0x13, 0xe3, 0x12, 0x1b, 0x3f, 0xfb, 0xee, 0xec, 0x1d, 0x26,
  0xed, 0x1e, 0x17, 0xc4, 0xee, 0x00, 0x02, 0x2c, 0x00, 0xdb, 0x2a, 0xd0,
  0xd2, 0xf6, 0x2d, 0x0a, 0x26, 0xe7, 0x18, 0x0a, 0x13, 0x15, 0x2c, 0x1c,
  0x10, 0x1b, 0xeb, 0xd9, 0xd7, 0xe4, 0x07, 0x2e, 0xfe, 0x38, 0xff, 0xdd,
  0xff, 0xee, 0x06, 0xd0, 0xf2, 0x1f, 0x15, 0xe4, 0xcb, 0xe6, 0x14, 0x09,
  0xe5, 0x19, 0xf9, 0xb6, 0x20, 0xd9, 0x39, 0xdc, 0x00, 0x38, 0xf7, 0xb2,
  0xc2, 0xcf, 0xf0, 0xfd, 0x33, 0x1b, 0x17, 0xea, 0xed, 0x12, 0x2e, 0x03,
  0x07, 0x22, 0x28, 0xc0, 0xca, 0xdc, 0x1b, 0x32, 0x17, 0x21, 0x06, 0xd5,
  0x19, 0xfe, 0xee, 0xef, 0x1a, 0x05, 0x07, 0xef, 0xed, 0xef, 0x0f, 0xf5,
  0xdb, 0x0e, 0x0b, 0xda, 0x24, 0xd4, 0xe1, 0x16, 0xd9, 0xff, 0x18, 0xa7,
  0x01, 0xe0, 0xe0, 0xf6, 0xa8, 0xf6, 0x06, 0xe1, 0x08, 0x16, 0x00, 0x2a,
  0xc6, 0x1a, 0x0f, 0xfa, 0xf6, 0x07, 0x08, 0xe4, 0xec, 0x17, 0xfa, 0xf6,
  0x3e, 0xe2, 0xe9, 0x36, 0xef, 0xe7, 0xcb, 0xd3, 0xd7, 0xbe, 0xd9, 0x07,
  0xaa, 0x1b, 0x1d, 0xf1, 0x22, 0x0b, 0xc8, 0x26, 0xbc, 0x23, 0xff, 0xab,
  0xfc, 0xfa, 0xe7, 0xfc, 0xca, 0x14, 0x2b, 0xac, 0x55, 0xff, 0xfa, 0x06,
  0x1b, 0xf6, 0x0a, 0x89, 0xc9, 0xe8, 0xf2, 0x3b, 0x7e, 0xfc, 0xff, 0xff,
  0x04, 0x00, 0x00, 0x00, 0x40, 0x00, 0x00, 0x00, 0xf1, 0x0c, 0x00, 0x00,
  0x17, 0x03, 0x00, 0x00, 0x9e, 0x08, 0x00, 0x00, 0xc2, 0xf5, 0xff, 0xff,
  0xa4, 0xf7, 0xff, 0xff, 0xe2, 0xf9, 0xff, 0xff, 0x4a, 0x02, 0x00, 0x00,
  0xa2, 0xf7, 0xff, 0xff, 0x3b, 0xf9, 0xff, 0xff, 0x54, 0xfa, 0xff, 0xff,
  0x75, 0x02, 0x00, 0x00, 0x45, 0x01, 0x00, 0x00, 0xca, 0xfb, 0xff, 0xff,
  0xb3, 0x00, 0x00, 0x00, 0x61, 0x00, 0x00, 0x00, 0xf0, 0x05, 0x00, 0x00,
  0xca, 0xfc, 0xff, 0xff, 0x04, 0x00, 0x00, 0x00, 0x00, 0x02, 0x00, 0x00,
  0x2e, 0xe8, 0x37, 0xbd, 0x1c, 0xba, 0xaf, 0x88, 0xb2, 0x69, 0x47, 0x27,
  0x49, 0xc1, 0x9e, 0x81, 0xe1, 0x9c, 0xd1, 0xb9, 0xb6, 0xd1, 0x1b, 0xea,
  0x48, 0xfc, 0x14, 0xf9, 0xcc, 0x4f, 0x1d, 0x78, 0xe5, 0x2e, 0xa9, 0xdf,
  0x27, 0xe3, 0xb0, 0x63, 0xa3, 0xbf, 0x1b, 0x96, 0x5f, 0x98, 0x21, 0x3f,
  0x46, 0xcc, 0x04, 0xc5, 0x12, 0xc0, 0xe1, 0x3a, 0xfe, 0x0a, 0x2f, 0x30,
  0x22, 0x24, 0xb4, 0x7f, 0x0a, 0x7f, 0x2a, 0xec, 0x5e, 0x26, 0xe8, 0x50,
  0xd1, 0x09, 0xd9, 0xcd, 0x0b, 0xee, 0xcf, 0x14, 0x2e, 0x0c, 0xe3, 0x3c,
  0x3f, 0xde, 0xee, 0xcb, 0x05, 0xec, 0xd2, 0xb1, 0x31, 0xfb, 0xf4, 0xe4,
  0xbc, 0x94, 0xe8, 0x26, 0x81, 0x09, 0x62, 0x33, 0x47, 0x1d, 0x18, 0x06,
  0x9b, 0x38, 0x67, 0x18, 0x0d, 0x46, 0x3b, 0xfb, 0xbb, 0xc5, 0x40, 0x1a,
  0xbe, 0x03, 0xfa, 0x1c, 0xda, 0x1b, 0xe2, 0xe1, 0xb2, 0xbc, 0x7b, 0x7e,
  0x6b, 0x02, 0xfe, 0x1d, 0xc8, 0x19, 0xfb, 0x60, 0xd1, 0x50, 0xc8, 0xfd,
  0x90, 0x43, 0xb5, 0x11, 0xa7, 0xfa, 0xad, 0xdf, 0x58, 0x0f, 0x6a, 0x7f,
  0xb0, 0xfd, 0xd8, 0x59, 0x81, 0xfc, 0xcd, 0x34, 0xf7, 0x18, 0x3f, 0x2c,
  0x25, 0x41, 0x55, 0x45, 0x41, 0xd7, 0x26, 0x24, 0xde, 0x55, 0x1e, 0x4d,
  0x34, 0xae, 0xc5, 0xc1, 0xa3, 0xfb, 0x10, 0xc3, 0x42, 0xb1, 0xd2, 0x4d,
  0xc4, 0x81, 0x10, 0xf8, 0x93, 0x3c, 0x57, 0x52, 0x36, 0x00, 0x04, 0x8d,
  0x9b, 0xd4, 0xa4, 0xd5, 0x7b, 0xdc, 0x15, 0x9b, 0x22, 0x38, 0x06, 0x83,
  0x29, 0x5a, 0x16, 0xc3, 0x33, 0x27, 0x75, 0x17, 0xb9, 0x3c, 0x69, 0xe2,
  0xf7, 0xea, 0xb5, 0x05, 0xcb, 0x0f, 0xca, 0xfc, 0xce, 0x0e, 0x15, 0x95,
  0xd7, 0x2e, 0x7f, 0x7d, 0x1a, 0x0b, 0x4c, 0xa5, 0x30, 0x54, 0x57, 0x67,
  0x21, 0xf7, 0xf3, 0x2f, 0x06, 0xb5, 0x59, 0x2d, 0xe3, 0x7f, 0x6d, 0x57,
  0x0c, 0x14, 0x31, 0xea, 0xbc, 0x57, 0xd0, 0x39, 0xd8, 0x40, 0x3b, 0x11,
  0x11, 0x85, 0xcd, 0xa7, 0xc6, 0xcb, 0x9c, 0xac, 0xf6, 0xbb, 0xe3, 0xad,
  0xcd, 0xdf, 0xd2, 0xda, 0xcf, 0x76, 0x7f, 0xe4, 0x38, 0x02, 0x3f, 0x95,
  0x16, 0x7c, 0x1b, 0x12, 0xc3, 0x40, 0x13, 0x22, 0xfe, 0x72, 0x75, 0xd0,
  0x26, 0xc5, 0xd1, 0xcc, 0x4b, 0xd0, 0xda, 0xbc, 0xf9, 0xf9, 0x04, 0x91,
  0x12, 0x48, 0x01, 0x0a, 0x2e, 0xce, 0xe5, 0xeb, 0x4c, 0x0d, 0xd0, 0x51,
  0xca, 0x06, 0xc0, 0xe6, 0x11, 0x57, 0xf6, 0x1d, 0xfd, 0x2a, 0xe4, 0x22,
  0xce, 0x81, 0xc0, 0xb6, 0xdf, 0x1b, 0xf5, 0xaf, 0xed, 0x0f, 0xda, 0xcd,
  0x60, 0xf3, 0x14, 0x9a, 0xaa, 0x4f, 0x55, 0x2b, 0x67, 0x81, 0x34, 0xec,
  0xd6, 0xe7, 0x6e, 0xf7, 0x31, 0xff, 0xdc, 0xce, 0x0d, 0xb8, 0x20, 0xdb,
  0xf3, 0x0d, 0x07, 0x4f, 0xa6, 0xeb, 0x61, 0x56, 0x61, 0x9c, 0x6c, 0x57,
  0x81, 0x4e, 0x3b, 0x8c, 0x41, 0x48, 0x03, 0xa3, 0x57, 0xe2, 0x16, 0xac,
  0xde, 0xa9, 0x25, 0xa7, 0xf7, 0x9e, 0x37, 0xed, 0xaa, 0xbe, 0x52, 0x25,
  0x4b, 0x3c, 0x19, 0x77, 0x3d, 0xaa, 0x35, 0xf0, 0xc9, 0xc6, 0x75, 0x05,
  0xcf, 0xb3, 0x16, 0x06, 0xf6, 0xc3, 0xba, 0xda, 0xc9, 0xf6, 0x12, 0x4d,
  0xc3, 0x94, 0x81, 0xaa, 0x3f, 0xdc, 0xa7, 0x25, 0x96, 0x63, 0xef, 0x64,
  0xbe, 0xef, 0x16, 0xb1, 0xba, 0x0d, 0x2d, 0x5c, 0xf4, 0x2a, 0xec, 0x47,
  0xb0, 0xc4, 0xea, 0x81, 0xba, 0xce, 0x4c, 0xf1, 0x30, 0xa8, 0x17, 0xd0,
  0x06, 0x42, 0x08, 0xe9, 0x3f, 0x2d, 0xaa, 0x6b, 0xb3, 0x41, 0x98, 0xae,
  0x3c, 0x30, 0x32, 0x01, 0xe7, 0x69, 0x94, 0xf1, 0x5d, 0x11, 0x9a, 0x45,
  0x24, 0xdd, 0xf9, 0xfb, 0x7f, 0xdc, 0xa0, 0x02, 0xd6, 0xfe, 0xff, 0xff,
  0x04, 0x00, 0x00, 0x00, 0x20, 0x00, 0x00, 0x00, 0xf8, 0x01, 0x00, 0x00,
  0xdb, 0xf9, 0xff, 0xff, 0x10, 0xfb, 0xff, 0xff, 0x17, 0xf7, 0xff, 0xff,
  0x82, 0xff, 0xff, 0xff, 0x44, 0xfa, 0xff, 0xff, 0x10, 0xf9, 0xff, 0xff,
  0x7d, 0xfe, 0xff, 0xff, 0x02, 0xff, 0xff, 0xff, 0x04, 0x00, 0x00, 0x00,
  0x48, 0x00, 0x00, 0x00, 0xfa, 0x00, 0x3a, 0xc8, 0xba, 0xa7, 0x55, 0xf7,
  0x81, 0x33, 0x8e, 0x83, 0x96, 0x7f, 0xba, 0x2f, 0xaa, 0x60, 0xcd, 0xb0,
  0xe5, 0xab, 0xff, 0xe6, 0x2a, 0x81, 0xb0, 0x81, 0x07, 0xfc, 0x05, 0xec,
  0xca, 0x91, 0xde, 0xeb, 0xe5, 0x6f, 0xc5, 0x24, 0x58, 0xc8, 0x77, 0x81,
  0xa5, 0x78, 0x7f, 0xd1, 0xc5, 0x6f, 0x01, 0xef, 0x4b, 0x40, 0xa3, 0x7f,
  0x47, 0x1c, 0xe8, 0x19, 0xf0, 0xa8, 0x4a, 0x4d, 0xf7, 0x7f, 0x47, 0xdf,
  0x5d, 0xca, 0x38, 0x68, 0x56, 0xff, 0xff, 0xff, 0x04, 0x00, 0x00, 0x00,
  0x08, 0x00, 0x00, 0x00, 0xff, 0xff, 0xff, 0xff, 0xe0, 0x00, 0x00, 0x00,
  0xdc, 0xf2, 0xff, 0xff, 0xe0, 0xf2, 0xff, 0xff, 0x0f, 0x00, 0x00, 0x00,
  0x4d, 0x4c, 0x49, 0x52, 0x20, 0x43, 0x6f, 0x6e, 0x76, 0x65, 0x72, 0x74,
  0x65, 0x64, 0x2e, 0x00, 0x01, 0x00, 0x00, 0x00, 0x14, 0x00, 0x00, 0x00,
  0x00, 0x00, 0x0e, 0x00, 0x18, 0x00, 0x14, 0x00, 0x10, 0x00, 0x0c, 0x00,
  0x08, 0x00, 0x04, 0x00, 0x0e, 0x00, 0x00, 0x00, 0x14, 0x00, 0x00, 0x00,
  0x1c, 0x00, 0x00, 0x00, 0x4c, 0x02, 0x00, 0x00, 0x50, 0x02, 0x00, 0x00,
  0x54, 0x02, 0x00, 0x00, 0x04, 0x00, 0x00, 0x00, 0x6d, 0x61, 0x69, 0x6e,
  0x00, 0x00, 0x00, 0x00, 0x08, 0x00, 0x00, 0x00, 0xe8, 0x01, 0x00, 0x00,
  0x84, 0x01, 0x00, 0x00, 0x34, 0x01, 0x00, 0x00, 0xf0, 0x00, 0x00, 0x00,
  0xc8, 0x00, 0x00, 0x00, 0x78, 0x00, 0x00, 0x00, 0x40, 0x00, 0x00, 0x00,
  0x04, 0x00, 0x00, 0x00, 0xa6, 0xfe, 0xff, 0xff, 0x1c, 0x00, 0x00, 0x00,
  0x00, 0x00, 0x00, 0x09, 0x1c, 0x00, 0x00, 0x00, 0x20, 0x00, 0x00, 0x00,
  0x04, 0x00, 0x00, 0x00, 0x00, 0x00, 0x06, 0x00, 0x08, 0x00, 0x04, 0x00,
  0x06, 0x00, 0x00, 0x00, 0x00, 0x00, 0x80, 0x3f, 0x01, 0x00, 0x00, 0x00,
  0x11, 0x00, 0x00, 0x00, 0x01, 0x00, 0x00, 0x00, 0x10, 0x00, 0x00, 0x00,
  0xde, 0xfe, 0xff, 0xff, 0x14, 0x00, 0x00, 0x00, 0x00, 0x00, 0x00, 0x08,
  0x10, 0x00, 0x00, 0x00, 0x14, 0x00, 0x00, 0x00, 0x03, 0x00, 0x00, 0x00,
  0xa8, 0xf3, 0xff, 0xff, 0x01, 0x00, 0x00, 0x00, 0x10, 0x00, 0x00, 0x00,
  0x03, 0x00, 0x00, 0x00, 0x0f, 0x00, 0x00, 0x00, 0x08, 0x00, 0x00, 0x00,
  0x09, 0x00, 0x00, 0x00, 0x12, 0xff, 0xff, 0xff, 0x1c, 0x00, 0x00, 0x00,
  0x00, 0x00, 0x00, 0x08, 0x1c, 0x00, 0x00, 0x00, 0x20, 0x00, 0x00, 0x00,
  0x03, 0x00, 0x00, 0x00, 0x00, 0x00, 0x06, 0x00, 0x08, 0x00, 0x07, 0x00,
  0x06, 0x00, 0x00, 0x00, 0x00, 0x00, 0x00, 0x01, 0x01, 0x00, 0x00, 0x00,
  0x0f, 0x00, 0x00, 0x00, 0x03, 0x00, 0x00, 0x00, 0x0e, 0x00, 0x00, 0x00,
  0x06, 0x00, 0x00, 0x00, 0x07, 0x00, 0x00, 0x00, 0x00, 0x00, 0x0a, 0x00,
  0x10, 0x00, 0x0c, 0x00, 0x08, 0x00, 0x04, 0x00, 0x0a, 0x00, 0x00, 0x00,
  0x0c, 0x00, 0x00, 0x00, 0x10, 0x00, 0x00, 0x00, 0x02, 0x00, 0x00, 0x00,
  0x01, 0x00, 0x00, 0x00, 0x0e, 0x00, 0x00, 0x00, 0x02, 0x00, 0x00, 0x00,
  0x0d, 0x00, 0x00, 0x00, 0x01, 0x00, 0x00, 0x00, 0x82, 0xff, 0xff, 0xff,
  0x14, 0x00, 0x00, 0x00, 0x00, 0x00, 0x00, 0x05, 0x24, 0x00, 0x00, 0x00,
  0x28, 0x00, 0x00, 0x00, 0x01, 0x00, 0x00, 0x00, 0x72, 0xff, 0xff, 0xff,
  0x03, 0x00, 0x00, 0x00, 0x01, 0x00, 0x00, 0x00, 0x03, 0x00, 0x00, 0x00,
  0x01, 0x00, 0x00, 0x00, 0x00, 0x00, 0x00, 0x01, 0x01, 0x00, 0x00, 0x00,
  0x0d, 0x00, 0x00, 0x00, 0x01, 0x00, 0x00, 0x00, 0x0c, 0x00, 0x00, 0x00,
  0x62, 0xff, 0xff, 0xff, 0x10, 0x00, 0x00, 0x00, 0x00, 0x00, 0x00, 0x01,
  0x18, 0x00, 0x00, 0x00, 0x1c, 0x00, 0x00, 0x00, 0x54, 0xff, 0xff, 0xff,
  0x00, 0x00, 0x00, 0x01, 0x01, 0x00, 0x00, 0x00, 0x01, 0x00, 0x00, 0x00,
  0x01, 0x00, 0x00, 0x00, 0x0c, 0x00, 0x00, 0x00, 0x03, 0x00, 0x00, 0x00,
  0x0b, 0x00, 0x00, 0x00, 0x04, 0x00, 0x00, 0x00, 0x05, 0x00, 0x00, 0x00,
  0x00, 0x00, 0x0e, 0x00, 0x1a, 0x00, 0x14, 0x00, 0x10, 0x00, 0x0c, 0x00,
  0x0b, 0x00, 0x04, 0x00, 0x0e, 0x00, 0x00, 0x00, 0x24, 0x00, 0x00, 0x00,
  0x00, 0x00, 0x00, 0x05, 0x34, 0x00, 0x00, 0x00, 0x38, 0x00, 0x00, 0x00,
  0x01, 0x00, 0x00, 0x00, 0x00, 0x00, 0x0e, 0x00, 0x18, 0x00, 0x17, 0x00,
  0x10, 0x00, 0x0c, 0x00, 0x08, 0x00, 0x04, 0x00, 0x0e, 0x00, 0x00, 0x00,
  0x03, 0x00, 0x00, 0x00, 0x03, 0x00, 0x00, 0x00, 0x03, 0x00, 0x00, 0x00,
  0x03, 0x00, 0x00, 0x00, 0x00, 0x00, 0x00, 0x01, 0x01, 0x00, 0x00, 0x00,
  0x0b, 0x00, 0x00, 0x00, 0x01, 0x00, 0x00, 0x00, 0x0a, 0x00, 0x00, 0x00,
  0x00, 0x00, 0x0e, 0x00, 0x14, 0x00, 0x00, 0x00, 0x10, 0x00, 0x0c, 0x00,
  0x0b, 0x00, 0x04, 0x00, 0x0e, 0x00, 0x00, 0x00, 0x1c, 0x00, 0x00, 0x00,
  0x00, 0x00, 0x00, 0x01, 0x24, 0x00, 0x00, 0x00, 0x28, 0x00, 0x00, 0x00,
  0x0c, 0x00, 0x10, 0x00, 0x00, 0x00, 0x0c, 0x00, 0x08, 0x00, 0x07, 0x00,
  0x0c, 0x00, 0x00, 0x00, 0x00, 0x00, 0x00, 0x01, 0x01, 0x00, 0x00, 0x00,
  0x01, 0x00, 0x00, 0x00, 0x01, 0x00, 0x00, 0x00, 0x0a, 0x00, 0x00, 0x00,
  0x03, 0x00, 0x00, 0x00, 0x00, 0x00, 0x00, 0x00, 0x02, 0x00, 0x00, 0x00,
  0x03, 0x00, 0x00, 0x00, 0x01, 0x00, 0x00, 0x00, 0x11, 0x00, 0x00, 0x00,
  0x01, 0x00, 0x00, 0x00, 0x00, 0x00, 0x00, 0x00, 0x12, 0x00, 0x00, 0x00,
  0xcc, 0x0a, 0x00, 0x00, 0x68, 0x0a, 0x00, 0x00, 0x90, 0x09, 0x00, 0x00,
  0xe4, 0x08, 0x00, 0x00, 0xb8, 0x07, 0x00, 0x00, 0xac, 0x06, 0x00, 0x00,
  0x40, 0x06, 0x00, 0x00, 0xe4, 0x05, 0x00, 0x00, 0x78, 0x05, 0x00, 0x00,
  0x1c, 0x05, 0x00, 0x00, 0x48, 0x04, 0x00, 0x00, 0xb4, 0x03, 0x00, 0x00,
  0xe0, 0x02, 0x00, 0x00, 0x4c, 0x02, 0x00, 0x00, 0xd0, 0x01, 0x00, 0x00,
  0x1c, 0x01, 0x00, 0x00, 0x80, 0x00, 0x00, 0x00, 0x04, 0x00, 0x00, 0x00,
  0x90, 0xf5, 0xff, 0xff, 0x18, 0x00, 0x00, 0x00, 0x20, 0x00, 0x00, 0x00,
  0x40, 0x00, 0x00, 0x00, 0x12, 0x00, 0x00, 0x00, 0x00, 0x00, 0x00, 0x09,
  0x54, 0x00, 0x00, 0x00, 0x02, 0x00, 0x00, 0x00, 0xff, 0xff, 0xff, 0xff,
  0x03, 0x00, 0x00, 0x00, 0x74, 0xf5, 0xff, 0xff, 0x08, 0x00, 0x00, 0x00,
  0x14, 0x00, 0x00, 0x00, 0x01, 0x00, 0x00, 0x00, 0x80, 0xff, 0xff, 0xff,
  0xff, 0xff, 0xff, 0xff, 0x00, 0x00, 0x00, 0x00, 0x01, 0x00, 0x00, 0x00,
  0x00, 0x00, 0x80, 0x3b, 0x19, 0x00, 0x00, 0x00, 0x53, 0x74, 0x61, 0x74,
  0x65, 0x66, 0x75, 0x6c, 0x50, 0x61, 0x72, 0x74, 0x69, 0x74, 0x69, 0x6f,
  0x6e, 0x65, 0x64, 0x43, 0x61, 0x6c, 0x6c, 0x3a, 0x30, 0x00, 0x00, 0x00,
  0x02, 0x00, 0x00, 0x00, 0x01, 0x00, 0x00, 0x00, 0x03, 0x00, 0x00, 0x00,
  0x08, 0xf6, 0xff, 0xff, 0x18, 0x00, 0x00, 0x00, 0x20, 0x00, 0x00, 0x00,
  0x40, 0x00, 0x00, 0x00, 0x11, 0x00, 0x00, 0x00, 0x00, 0x00, 0x00, 0x09,
  0x74, 0x00, 0x00, 0x00, 0x02, 0x00, 0x00, 0x00, 0xff, 0xff, 0xff, 0xff,
  0x03, 0x00, 0x00, 0x00, 0xec, 0xf5, 0xff, 0xff, 0x08, 0x00, 0x00, 0x00,
  0x14, 0x00, 0x00, 0x00, 0x01, 0x00, 0x00, 0x00, 0xf8, 0xff, 0xff, 0xff,
  0xff, 0xff, 0xff, 0xff, 0x00, 0x00, 0x00, 0x00, 0x01, 0x00, 0x00, 0x00,
  0x3a, 0xca, 0x0e, 0x3e, 0x38, 0x00, 0x00, 0x00, 0x73, 0x65, 0x71, 0x75,
  0x65, 0x6e, 0x74, 0x69, 0x61, 0x6c, 0x5f, 0x31, 0x2f, 0x64, 0x65, 0x6e,
  0x73, 0x65, 0x5f, 0x33, 0x2f, 0x4d, 0x61, 0x74, 0x4d, 0x75, 0x6c, 0x3b,
  0x73, 0x65, 0x71, 0x75, 0x65, 0x6e, 0x74, 0x69, 0x61, 0x6c, 0x5f, 0x31,
  0x2f, 0x64, 0x65, 0x6e, 0x73, 0x65, 0x5f, 0x33, 0x2f, 0x42, 0x69, 0x61,
  0x73, 0x41, 0x64, 0x64, 0x00, 0x00, 0x00, 0x00, 0x02, 0x00, 0x00, 0x00,
  0x01, 0x00, 0x00, 0x00, 0x03, 0x00, 0x00, 0x00, 0xa0, 0xf6, 0xff, 0xff,
  0x18, 0x00, 0x00, 0x00, 0x20, 0x00, 0x00, 0x00, 0x40, 0x00, 0x00, 0x00,
  0x10, 0x00, 0x00, 0x00, 0x00, 0x00, 0x00, 0x09, 0x8c, 0x00, 0x00, 0x00,
  0x02, 0x00, 0x00, 0x00, 0xff, 0xff, 0xff, 0xff, 0x10, 0x00, 0x00, 0x00,
  0x84, 0xf6, 0xff, 0xff, 0x08, 0x00, 0x00, 0x00, 0x14, 0x00, 0x00, 0x00,
  0x01, 0x00, 0x00, 0x00, 0x80, 0xff, 0xff, 0xff, 0xff, 0xff, 0xff, 0xff,
  0x00, 0x00, 0x00, 0x00, 0x01, 0x00, 0x00, 0x00, 0x21, 0x50, 0x39, 0x3d,
  0x52, 0x00, 0x00, 0x00, 0x73, 0x65, 0x71, 0x75, 0x65, 0x6e, 0x74, 0x69,
  0x61, 0x6c, 0x5f, 0x31, 0x2f, 0x64, 0x65, 0x6e, 0x73, 0x65, 0x5f, 0x32,
  0x2f, 0x4d, 0x61, 0x74, 0x4d, 0x75, 0x6c, 0x3b, 0x73, 0x65, 0x71, 0x75,
  0x65, 0x6e, 0x74, 0x69, 0x61, 0x6c, 0x5f, 0x31, 0x2f, 0x64, 0x65, 0x6e,
  0x73, 0x65, 0x5f, 0x32, 0x2f, 0x52, 0x65, 0x6c, 0x75, 0x3b, 0x73, 0x65,
  0x71, 0x75, 0x65, 0x6e, 0x74, 0x69, 0x61, 0x6c, 0x5f, 0x31, 0x2f, 0x64,
  0x65, 0x6e, 0x73, 0x65, 0x5f, 0x32, 0x2f, 0x42, 0x69, 0x61, 0x73, 0x41,
  0x64, 0x64, 0x00, 0x00, 0x02, 0x00, 0x00, 0x00, 0x01, 0x00, 0x00, 0x00,
  0x10, 0x00, 0x00, 0x00, 0x50, 0xf7, 0xff, 0xff, 0x18, 0x00, 0x00, 0x00,
  0x20, 0x00, 0x00, 0x00, 0x3c, 0x00, 0x00, 0x00, 0x0f, 0x00, 0x00, 0x00,
  0x00, 0x00, 0x00, 0x09, 0x54, 0x00, 0x00, 0x00, 0x02, 0x00, 0x00, 0x00,
  0xff, 0xff, 0xff, 0xff, 0xe0, 0x00, 0x00, 0x00, 0x34, 0xf7, 0xff, 0xff,
  0x08, 0x00, 0x00, 0x00, 0x10, 0x00, 0x00, 0x00, 0x01, 0x00, 0x00, 0x00,
  0x80, 0xff, 0xff, 0xff, 0xff, 0xff, 0xff, 0xff, 0x01, 0x00, 0x00, 0x00,
  0x6b, 0xca, 0x7e, 0x3c, 0x1e, 0x00, 0x00, 0x00, 0x73, 0x65, 0x71, 0x75,
  0x65, 0x6e, 0x74, 0x69, 0x61, 0x6c, 0x5f, 0x31, 0x2f, 0x66, 0x6c, 0x61,
  0x74, 0x74, 0x65, 0x6e, 0x5f, 0x31, 0x2f, 0x52, 0x65, 0x73, 0x68, 0x61,
  0x70, 0x65, 0x00, 0x00, 0x02, 0x00, 0x00, 0x00, 0x01, 0x00, 0x00, 0x00,
  0xe0, 0x00, 0x00, 0x00, 0xc8, 0xf7, 0xff, 0xff, 0x18, 0x00, 0x00, 0x00,
  0x28, 0x00, 0x00, 0x00, 0x44, 0x00, 0x00, 0x00, 0x0e, 0x00, 0x00, 0x00,
  0x00, 0x00, 0x00, 0x09, 0x64, 0x00, 0x00, 0x00, 0x04, 0x00, 0x00, 0x00,
  0xff, 0xff, 0xff, 0xff, 0x0e, 0x00, 0x00, 0x00, 0x01, 0x00, 0x00, 0x00,
  0x10, 0x00, 0x00, 0x00, 0xb4, 0xf7, 0xff, 0xff, 0x08, 0x00, 0x00, 0x00,
  0x10, 0x00, 0x00, 0x00, 0x01, 0x00, 0x00, 0x00, 0x80, 0xff, 0xff, 0xff,
  0xff, 0xff, 0xff, 0xff, 0x01, 0x00, 0x00, 0x00, 0x6b, 0xca, 0x7e, 0x3c,
  0x24, 0x00, 0x00, 0x00, 0x73, 0x65, 0x71, 0x75, 0x65, 0x6e, 0x74, 0x69,
  0x61, 0x6c, 0x5f, 0x31, 0x2f, 0x6d, 0x61, 0x78, 0x5f, 0x70, 0x6f, 0x6f,
  0x6c, 0x69, 0x6e, 0x67, 0x32, 0x64, 0x5f, 0x33, 0x2f, 0x4d, 0x61, 0x78,
  0x50, 0x6f, 0x6f, 0x6c, 0x00, 0x00, 0x00, 0x00, 0x04, 0x00, 0x00, 0x00,
  0x01, 0x00, 0x00, 0x00, 0x0e, 0x00, 0x00, 0x00, 0x01, 0x00, 0x00, 0x00,
  0x10, 0x00, 0x00, 0x00, 0x58, 0xf8, 0xff, 0xff, 0x18, 0x00, 0x00, 0x00,
  0x28, 0x00, 0x00, 0x00, 0x48, 0x00, 0x00, 0x00, 0x0d, 0x00, 0x00, 0x00,
  0x00, 0x00, 0x00, 0x09, 0xa4, 0x00, 0x00, 0x00, 0x04, 0x00, 0x00, 0x00,
  0xff, 0xff, 0xff, 0xff, 0x2a, 0x00, 0x00, 0x00, 0x01, 0x00, 0x00, 0x00,
  0x10, 0x00, 0x00, 0x00, 0x44, 0xf8, 0xff, 0xff, 0x08, 0x00, 0x00, 0x00,
  0x14, 0x00, 0x00, 0x00, 0x01, 0x00, 0x00, 0x00, 0x80, 0xff, 0xff, 0xff,
  0xff, 0xff, 0xff, 0xff, 0x00, 0x00, 0x00, 0x00, 0x01, 0x00, 0x00, 0x00,
  0x6b, 0xca, 0x7e, 0x3c, 0x63, 0x00, 0x00, 0x00, 0x73, 0x65, 0x71, 0x75,
  0x65, 0x6e, 0x74, 0x69, 0x61, 0x6c, 0x5f, 0x31, 0x2f, 0x63, 0x6f, 0x6e,
  0x76, 0x32, 0x64, 0x5f, 0x33, 0x2f, 0x52, 0x65, 0x6c, 0x75, 0x3b, 0x73,
  0x65, 0x71, 0x75, 0x65, 0x6e, 0x74, 0x69, 0x61, 0x6c, 0x5f, 0x31, 0x2f,
  0x63, 0x6f, 0x6e, 0x76, 0x32, 0x64, 0x5f, 0x33, 0x2f, 0x42, 0x69, 0x61,
  0x73, 0x41, 0x64, 0x64, 0x3b, 0x73, 0x65, 0x71, 0x75, 0x65, 0x6e, 0x74,
  0x69, 0x61, 0x6c, 0x5f, 0x31, 0x2f, 0x63, 0x6f, 0x6e, 0x76, 0x32, 0x64,
  0x5f, 0x33, 0x2f, 0x43, 0x6f, 0x6e, 0x76, 0x32, 0x44, 0x3b, 0x63, 0x6f,
  0x6e, 0x76, 0x32, 0x64, 0x5f, 0x33, 0x2f, 0x62, 0x69, 0x61, 0x73, 0x00,
  0x04, 0x00, 0x00, 0x00, 0x01, 0x00, 0x00, 0x00, 0x2a, 0x00, 0x00, 0x00,
  0x01, 0x00, 0x00, 0x00, 0x10, 0x00, 0x00, 0x00, 0x28, 0xf9, 0xff, 0xff,
  0x18, 0x00, 0x00, 0x00, 0x28, 0x00, 0x00, 0x00, 0x44, 0x00, 0x00, 0x00,
  0x0c, 0x00, 0x00, 0x00, 0x00, 0x00, 0x00, 0x09, 0x64, 0x00, 0x00, 0x00,
  0x04, 0x00, 0x00, 0x00, 0xff, 0xff, 0xff, 0xff, 0x2a, 0x00, 0x00, 0x00,
  0x01, 0x00, 0x00, 0x00, 0x08, 0x00, 0x00, 0x00, 0x14, 0xf9, 0xff, 0xff,
  0x08, 0x00, 0x00, 0x00, 0x10, 0x00, 0x00, 0x00, 0x01, 0x00, 0x00, 0x00,
  0x80, 0xff, 0xff, 0xff, 0xff, 0xff, 0xff, 0xff, 0x01, 0x00, 0x00, 0x00,
  0x84, 0xa6, 0xa7, 0x3c, 0x24, 0x00, 0x00, 0x00, 0x73, 0x65, 0x71, 0x75,
  0x65, 0x6e, 0x74, 0x69, 0x61, 0x6c, 0x5f, 0x31, 0x2f, 0x6d, 0x61, 0x78,
  0x5f, 0x70, 0x6f, 0x6f, 0x6c, 0x69, 0x6e, 0x67, 0x32, 0x64, 0x5f, 0x32,
  0x2f, 0x4d, 0x61, 0x78, 0x50, 0x6f, 0x6f, 0x6c, 0x00, 0x00, 0x00, 0x00,
  0x04, 0x00, 0x00, 0x00, 0x01, 0x00, 0x00, 0x00, 0x2a, 0x00, 0x00, 0x00,
  0x01, 0x00, 0x00, 0x00, 0x08, 0x00, 0x00, 0x00, 0xb8, 0xf9, 0xff, 0xff,
  0x18, 0x00, 0x00, 0x00, 0x28, 0x00, 0x00, 0x00, 0x48, 0x00, 0x00, 0x00,
  0x0b, 0x00, 0x00, 0x00, 0x00, 0x00, 0x00, 0x09, 0xa4, 0x00, 0x00, 0x00,
  0x04, 0x00, 0x00, 0x00, 0xff, 0xff, 0xff, 0xff, 0x80, 0x00, 0x00, 0x00,
  0x03, 0x00, 0x00, 0x00, 0x08, 0x00, 0x00, 0x00, 0xa4, 0xf9, 0xff, 0xff,
  0x08, 0x00, 0x00, 0x00, 0x14, 0x00, 0x00, 0x00, 0x01, 0x00, 0x00, 0x00,
  0x80, 0xff, 0xff, 0xff, 0xff, 0xff, 0xff, 0xff, 0x00, 0x00, 0x00, 0x00,
  0x01, 0x00, 0x00, 0x00, 0x84, 0xa6, 0xa7, 0x3c, 0x63, 0x00, 0x00, 0x00,
  0x73, 0x65, 0x71, 0x75, 0x65, 0x6e, 0x74, 0x69, 0x61, 0x6c, 0x5f, 0x31,
  0x2f, 0x63, 0x6f, 0x6e, 0x76, 0x32, 0x64, 0x5f, 0x32, 0x2f, 0x52, 0x65,
  0x6c, 0x75, 0x3b, 0x73, 0x65, 0x71, 0x75, 0x65, 0x6e, 0x74, 0x69, 0x61,
  0x6c, 0x5f, 0x31, 0x2f, 0x63, 0x6f, 0x6e, 0x76, 0x32, 0x64, 0x5f, 0x32,
  0x2f, 0x42, 0x69, 0x61, 0x73, 0x41, 0x64, 0x64, 0x3b, 0x73, 0x65, 0x71,
  0x75, 0x65, 0x6e, 0x74, 0x69, 0x61, 0x6c, 0x5f, 0x31, 0x2f, 0x63, 0x6f,
  0x6e, 0x76, 0x32, 0x64, 0x5f, 0x32, 0x2f, 0x43, 0x6f, 0x6e, 0x76, 0x32,
  0x44, 0x3b, 0x63, 0x6f, 0x6e, 0x76, 0x32, 0x64, 0x5f, 0x32, 0x2f, 0x62,
  0x69, 0x61, 0x73, 0x00, 0x04, 0x00, 0x00, 0x00, 0x01, 0x00, 0x00, 0x00,
  0x80, 0x00, 0x00, 0x00, 0x03, 0x00, 0x00, 0x00, 0x08, 0x00, 0x00, 0x00,
  0xe2, 0xfa, 0xff, 0xff, 0x14, 0x00, 0x00, 0x00, 0x34, 0x00, 0x00, 0x00,
  0x0a, 0x00, 0x00, 0x00, 0x00, 0x00, 0x00, 0x02, 0x3c, 0x00, 0x00, 0x00,
  0x5c, 0xfa, 0xff, 0xff, 0x08, 0x00, 0x00, 0x00, 0x14, 0x00, 0x00, 0x00,
  0x01, 0x00, 0x00, 0x00, 0x00, 0x00, 0x00, 0x00, 0x00, 0x00, 0x00, 0x00,
  0x00, 0x00, 0x00, 0x00, 0x01, 0x00, 0x00, 0x00, 0x6d, 0x92, 0x86, 0x39,
  0x0c, 0x00, 0x00, 0x00, 0x64, 0x65, 0x6e, 0x73, 0x65, 0x5f, 0x33, 0x2f,
  0x62, 0x69, 0x61, 0x73, 0x00, 0x00, 0x00, 0x00, 0x01, 0x00, 0x00, 0x00,
  0x03, 0x00, 0x00, 0x00, 0x3a, 0xfb, 0xff, 0xff, 0x14, 0x00, 0x00, 0x00,
  0x34, 0x00, 0x00, 0x00, 0x09, 0x00, 0x00, 0x00, 0x00, 0x00, 0x00, 0x09,
  0x48, 0x00, 0x00, 0x00, 0xb4, 0xfa, 0xff, 0xff, 0x08, 0x00, 0x00, 0x00,
  0x14, 0x00, 0x00, 0x00, 0x01, 0x00, 0x00, 0x00, 0x00, 0x00, 0x00, 0x00,
  0x00, 0x00, 0x00, 0x00, 0x00, 0x00, 0x00, 0x00, 0x01, 0x00, 0x00, 0x00,
  0x6b, 0xe7, 0xb9, 0x3b, 0x1b, 0x00, 0x00, 0x00, 0x73, 0x65, 0x71, 0x75,
  0x65, 0x6e, 0x74, 0x69, 0x61, 0x6c, 0x5f, 0x31, 0x2f, 0x64, 0x65, 0x6e,
  0x73, 0x65, 0x5f, 0x33, 0x2f, 0x4d, 0x61, 0x74, 0x4d, 0x75, 0x6c, 0x00,
  0x02, 0x00, 0x00, 0x00, 0x03, 0x00, 0x00, 0x00, 0x10, 0x00, 0x00, 0x00,
  0xa2, 0xfb, 0xff, 0xff, 0x14, 0x00, 0x00, 0x00, 0x34, 0x00, 0x00, 0x00,
  0x08, 0x00, 0x00, 0x00, 0x00, 0x00, 0x00, 0x02, 0x3c, 0x00, 0x00, 0x00,
  0x1c, 0xfb, 0xff, 0xff, 0x08, 0x00, 0x00, 0x00, 0x14, 0x00, 0x00, 0x00,
  0x01, 0x00, 0x00, 0x00, 0x00, 0x00, 0x00, 0x00, 0x00, 0x00, 0x00, 0x00,
  0x00, 0x00, 0x00, 0x00, 0x01, 0x00, 0x00, 0x00, 0x62, 0x10, 0x7a, 0x38,
  0x0c, 0x00, 0x00, 0x00, 0x64, 0x65, 0x6e, 0x73, 0x65, 0x5f, 0x32, 0x2f,
  0x62, 0x69, 0x61, 0x73, 0x00, 0x00, 0x00, 0x00, 0x01, 0x00, 0x00, 0x00,
  0x10, 0x00, 0x00, 0x00, 0xfa, 0xfb, 0xff, 0xff, 0x14, 0x00, 0x00, 0x00,
  0x34, 0x00, 0x00, 0x00, 0x07, 0x00, 0x00, 0x00, 0x00, 0x00, 0x00, 0x09,
  0x48, 0x00, 0x00, 0x00, 0x74, 0xfb, 0xff, 0xff, 0x08, 0x00, 0x00, 0x00,
  0x14, 0x00, 0x00, 0x00, 0x01, 0x00, 0x00, 0x00, 0x00, 0x00, 0x00, 0x00,
  0x00, 0x00, 0x00, 0x00, 0x00, 0x00, 0x00, 0x00, 0x01, 0x00, 0x00, 0x00,
  0x39, 0x40, 0x7b, 0x3b, 0x1b, 0x00, 0x00, 0x00, 0x73, 0x65, 0x71, 0x75,
  0x65, 0x6e, 0x74, 0x69, 0x61, 0x6c, 0x5f, 0x31, 0x2f, 0x64, 0x65, 0x6e,
  0x73, 0x65, 0x5f, 0x32, 0x2f, 0x4d, 0x61, 0x74, 0x4d, 0x75, 0x6c, 0x00,
  0x02, 0x00, 0x00, 0x00, 0x10, 0x00, 0x00, 0x00, 0xe0, 0x00, 0x00, 0x00,
  0x62, 0xfc, 0xff, 0xff, 0x14, 0x00, 0x00, 0x00, 0xe4, 0x00, 0x00, 0x00,
  0x06, 0x00, 0x00, 0x00, 0x00, 0x00, 0x00, 0x02, 0xec, 0x00, 0x00, 0x00,
  0xdc, 0xfb, 0xff, 0xff, 0x08, 0x00, 0x00, 0x00, 0x88, 0x00, 0x00, 0x00,
  0x10, 0x00, 0x00, 0x00, 0x00, 0x00, 0x00, 0x00, 0x00, 0x00, 0x00, 0x00,
  0x00, 0x00, 0x00, 0x00, 0x00, 0x00, 0x00, 0x00, 0x00, 0x00, 0x00, 0x00,
  0x00, 0x00, 0x00, 0x00, 0x00, 0x00, 0x00, 0x00, 0x00, 0x00, 0x00, 0x00,
  0x00, 0x00, 0x00, 0x00, 0x00, 0x00, 0x00, 0x00, 0x00, 0x00, 0x00, 0x00,
  0x00, 0x00, 0x00, 0x00, 0x00, 0x00, 0x00, 0x00, 0x00, 0x00, 0x00, 0x00,
  0x00, 0x00, 0x00, 0x00, 0x00, 0x00, 0x00, 0x00, 0x00, 0x00, 0x00, 0x00,
  0x00, 0x00, 0x00, 0x00, 0x00, 0x00, 0x00, 0x00, 0x00, 0x00, 0x00, 0x00,
  0x00, 0x00, 0x00, 0x00, 0x00, 0x00, 0x00, 0x00, 0x00, 0x00, 0x00, 0x00,
  0x00, 0x00, 0x00, 0x00, 0x00, 0x00, 0x00, 0x00, 0x00, 0x00, 0x00, 0x00,
  0x00, 0x00, 0x00, 0x00, 0x00, 0x00, 0x00, 0x00, 0x00, 0x00, 0x00, 0x00,
  0x00, 0x00, 0x00, 0x00, 0x00, 0x00, 0x00, 0x00, 0x00, 0x00, 0x00, 0x00,
  0x10, 0x00, 0x00, 0x00, 0x6b, 0x9a, 0x44, 0x38, 0x13, 0xe8, 0x64, 0x38,
  0xf1, 0x32, 0x80, 0x38, 0x69, 0x2b, 0x70, 0x38, 0x69, 0x4e, 0x33, 0x38,
  0xb8, 0xa0, 0x61, 0x38, 0x79, 0x8b, 0x3d, 0x38, 0x12, 0x98, 0x3c, 0x38,
  0x58, 0x63, 0x3e, 0x38, 0xb5, 0x7f, 0x72, 0x38, 0x32, 0xcb, 0x82, 0x38,
  0xd6, 0x9b, 0x79, 0x38, 0x56, 0xb4, 0x37, 0x38, 0xf5, 0xaf, 0x68, 0x38,
  0xbc, 0x59, 0x6e, 0x38, 0x06, 0x40, 0x5c, 0x38, 0x0d, 0x00, 0x00, 0x00,
  0x63, 0x6f, 0x6e, 0x76, 0x32, 0x64, 0x5f, 0x33, 0x2f, 0x62, 0x69, 0x61,
  0x73, 0x00, 0x00, 0x00, 0x01, 0x00, 0x00, 0x00, 0x10, 0x00, 0x00, 0x00,
  0x6a, 0xfd, 0xff, 0xff, 0x14, 0x00, 0x00, 0x00, 0xe8, 0x00, 0x00, 0x00,
  0x05, 0x00, 0x00, 0x00, 0x00, 0x00, 0x00, 0x09, 0x00, 0x01, 0x00, 0x00,
  0xe4, 0xfc, 0xff, 0xff, 0x08, 0x00, 0x00, 0x00, 0x8c, 0x00, 0x00, 0x00,
  0x10, 0x00, 0x00, 0x00, 0x00, 0x00, 0x00, 0x00, 0x00, 0x00, 0x00, 0x00,
  0x00, 0x00, 0x00, 0x00, 0x00, 0x00, 0x00, 0x00, 0x00, 0x00, 0x00, 0x00,
  0x00, 0x00, 0x00, 0x00, 0x00, 0x00, 0x00, 0x00, 0x00, 0x00, 0x00, 0x00,
  0x00, 0x00, 0x00, 0x00, 0x00, 0x00, 0x00, 0x00, 0x00, 0x00, 0x00, 0x00,
  0x00, 0x00, 0x00, 0x00, 0x00, 0x00, 0x00, 0x00, 0x00, 0x00, 0x00, 0x00,
  0x00, 0x00, 0x00, 0x00, 0x00, 0x00, 0x00, 0x00, 0x00, 0x00, 0x00, 0x00,
  0x00, 0x00, 0x00, 0x00, 0x00, 0x00, 0x00, 0x00, 0x00, 0x00, 0x00, 0x00,
  0x00, 0x00, 0x00, 0x00, 0x00, 0x00, 0x00, 0x00, 0x00, 0x00, 0x00, 0x00,
  0x00, 0x00, 0x00, 0x00, 0x00, 0x00, 0x00, 0x00, 0x00, 0x00, 0x00, 0x00,
  0x00, 0x00, 0x00, 0x00, 0x00, 0x00, 0x00, 0x00, 0x00, 0x00, 0x00, 0x00,
  0x00, 0x00, 0x00, 0x00, 0x00, 0x00, 0x00, 0x00, 0x00, 0x00, 0x00, 0x00,
  0x00, 0x00, 0x00, 0x00, 0x10, 0x00, 0x00, 0x00, 0xf0, 0x1a, 0x16, 0x3b,
  0xc4, 0xc4, 0x2e, 0x3b, 0x16, 0xc2, 0x43, 0x3b, 0x2c, 0x5e, 0x37, 0x3b,
  0x2f, 0xe6, 0x08, 0x3b, 0xec, 0x43, 0x2c, 0x3b, 0x59, 0xb7, 0x10, 0x3b,
  0x83, 0xfd, 0x0f, 0x3b, 0x2a, 0x5c, 0x11, 0x3b, 0x71, 0x25, 0x39, 0x3b,
  0x65, 0xb8, 0x47, 0x3b, 0x19, 0x93, 0x3e, 0x3b, 0xd2, 0x41, 0x0c, 0x3b,
  0xbd, 0xa7, 0x31, 0x3b, 0xa2, 0xfa, 0x35, 0x3b, 0xd3, 0x28, 0x28, 0x3b,
  0x1c, 0x00, 0x00, 0x00, 0x73, 0x65, 0x71, 0x75, 0x65, 0x6e, 0x74, 0x69,
  0x61, 0x6c, 0x5f, 0x31, 0x2f, 0x63, 0x6f, 0x6e, 0x76, 0x32, 0x64, 0x5f,
  0x33, 0x2f, 0x43, 0x6f, 0x6e, 0x76, 0x32, 0x44, 0x00, 0x00, 0x00, 0x00,
  0x04, 0x00, 0x00, 0x00, 0x10, 0x00, 0x00, 0x00, 0x04, 0x00, 0x00, 0x00,
  0x01, 0x00, 0x00, 0x00, 0x08, 0x00, 0x00, 0x00, 0x92, 0xfe, 0xff, 0xff,
  0x14, 0x00, 0x00, 0x00, 0x84, 0x00, 0x00, 0x00, 0x04, 0x00, 0x00, 0x00,
  0x00, 0x00, 0x00, 0x02, 0x8c, 0x00, 0x00, 0x00, 0x0c, 0xfe, 0xff, 0xff,
  0x08, 0x00, 0x00, 0x00, 0x48, 0x00, 0x00, 0x00, 0x08, 0x00, 0x00, 0x00,
  0x00, 0x00, 0x00, 0x00, 0x00, 0x00, 0x00, 0x00, 0x00, 0x00, 0x00, 0x00,
  0x00, 0x00, 0x00, 0x00, 0x00, 0x00, 0x00, 0x00, 0x00, 0x00, 0x00, 0x00,
  0x00, 0x00, 0x00, 0x00, 0x00, 0x00, 0x00, 0x00, 0x00, 0x00, 0x00, 0x00,
  0x00, 0x00, 0x00, 0x00, 0x00, 0x00, 0x00, 0x00, 0x00, 0x00, 0x00, 0x00,
  0x00, 0x00, 0x00, 0x00, 0x00, 0x00, 0x00, 0x00, 0x00, 0x00, 0x00, 0x00,
  0x00, 0x00, 0x00, 0x00, 0x08, 0x00, 0x00, 0x00, 0x13, 0x37, 0xf0, 0x38,
  0xce, 0x78, 0x97, 0x38, 0xa4, 0xa8, 0x8a, 0x38, 0xe7, 0x7d, 0x8c, 0x38,
  0x96, 0xfd, 0x99, 0x38, 0x98, 0x03, 0xa2, 0x38, 0xc8, 0xf4, 0xbf, 0x38,
  0xac, 0x38, 0xb5, 0x38, 0x0d, 0x00, 0x00, 0x00, 0x63, 0x6f, 0x6e, 0x76,
  0x32, 0x64, 0x5f, 0x32, 0x2f, 0x62, 0x69, 0x61, 0x73, 0x00, 0x00, 0x00,
  0x01, 0x00, 0x00, 0x00, 0x08, 0x00, 0x00, 0x00, 0x3a, 0xff, 0xff, 0xff,
  0x14, 0x00, 0x00, 0x00, 0x84, 0x00, 0x00, 0x00, 0x03, 0x00, 0x00, 0x00,
  0x00, 0x00, 0x00, 0x09, 0x9c, 0x00, 0x00, 0x00, 0xb4, 0xfe, 0xff, 0xff,
  0x08, 0x00, 0x00, 0x00, 0x48, 0x00, 0x00, 0x00, 0x08, 0x00, 0x00, 0x00,
  0x00, 0x00, 0x00, 0x00, 0x00, 0x00, 0x00, 0x00, 0x00, 0x00, 0x00, 0x00,
  0x00, 0x00, 0x00, 0x00, 0x00, 0x00, 0x00, 0x00, 0x00, 0x00, 0x00, 0x00,
  0x00, 0x00, 0x00, 0x00, 0x00, 0x00, 0x00, 0x00, 0x00, 0x00, 0x00, 0x00,
  0x00, 0x00, 0x00, 0x00, 0x00, 0x00, 0x00, 0x00, 0x00, 0x00, 0x00, 0x00,
  0x00, 0x00, 0x00, 0x00, 0x00, 0x00, 0x00, 0x00, 0x00, 0x00, 0x00, 0x00,
  0x00, 0x00, 0x00, 0x00, 0x08, 0x00, 0x00, 0x00, 0x55, 0x4e, 0x6f, 0x3b,
  0x0c, 0xe6, 0x16, 0x3b, 0x4c, 0x22, 0x0a, 0x3b, 0xc8, 0xf5, 0x0b, 0x3b,
  0x63, 0x68, 0x19, 0x3b, 0x9f, 0x66, 0x21, 0x3b, 0xcc, 0x3a, 0x3f, 0x3b,
  0x17, 0x89, 0x34, 0x3b, 0x1c, 0x00, 0x00, 0x00, 0x73, 0x65, 0x71, 0x75,
  0x65, 0x6e, 0x74, 0x69, 0x61, 0x6c, 0x5f, 0x31, 0x2f, 0x63, 0x6f, 0x6e,
  0x76, 0x32, 0x64, 0x5f, 0x32, 0x2f, 0x43, 0x6f, 0x6e, 0x76, 0x32, 0x44,
  0x00, 0x00, 0x00, 0x00, 0x04, 0x00, 0x00, 0x00, 0x08, 0x00, 0x00, 0x00,
  0x03, 0x00, 0x00, 0x00, 0x03, 0x00, 0x00, 0x00, 0x01, 0x00, 0x00, 0x00,
  0x00, 0x00, 0x0e, 0x00, 0x18, 0x00, 0x14, 0x00, 0x13, 0x00, 0x0c, 0x00,
  0x08, 0x00, 0x04, 0x00, 0x0e, 0x00, 0x00, 0x00, 0x18, 0x00, 0x00, 0x00,
  0x18, 0x00, 0x00, 0x00, 0x02, 0x00, 0x00, 0x00, 0x00, 0x00, 0x00, 0x02,
  0x30, 0x00, 0x00, 0x00, 0x04, 0x00, 0x04, 0x00, 0x04, 0x00, 0x00, 0x00,
  0x1c, 0x00, 0x00, 0x00, 0x73, 0x65, 0x71, 0x75, 0x65, 0x6e, 0x74, 0x69,
  0x61, 0x6c, 0x5f, 0x31, 0x2f, 0x66, 0x6c, 0x61, 0x74, 0x74, 0x65, 0x6e,
  0x5f, 0x31, 0x2f, 0x43, 0x6f, 0x6e, 0x73, 0x74, 0x00, 0x00, 0x00, 0x00,
  0x01, 0x00, 0x00, 0x00, 0x02, 0x00, 0x00, 0x00, 0x14, 0x00, 0x1c, 0x00,
  0x18, 0x00, 0x17, 0x00, 0x10, 0x00, 0x0c, 0x00, 0x08, 0x00, 0x00, 0x00,
  0x00, 0x00, 0x04, 0x00, 0x14, 0x00, 0x00, 0x00, 0x18, 0x00, 0x00, 0x00,
  0x34, 0x00, 0x00, 0x00, 0x50, 0x00, 0x00, 0x00, 0x01, 0x00, 0x00, 0x00,
  0x00, 0x00, 0x00, 0x09, 0x6c, 0x00, 0x00, 0x00, 0x04, 0x00, 0x00, 0x00,
  0xff, 0xff, 0xff, 0xff, 0x80, 0x00, 0x00, 0x00, 0x03, 0x00, 0x00, 0x00,
  0x01, 0x00, 0x00, 0x00, 0x0c, 0x00, 0x0c, 0x00, 0x00, 0x00, 0x00, 0x00,
  0x08, 0x00, 0x04, 0x00, 0x0c, 0x00, 0x00, 0x00, 0x08, 0x00, 0x00, 0x00,
  0x10, 0x00, 0x00, 0x00, 0x01, 0x00, 0x00, 0x00, 0xff, 0xff, 0xff, 0xff,
  0xff, 0xff, 0xff, 0xff, 0x01, 0x00, 0x00, 0x00, 0x7d, 0x7c, 0x00, 0x3d,
  0x20, 0x00, 0x00, 0x00, 0x73, 0x65, 0x72, 0x76, 0x69, 0x6e, 0x67, 0x5f,
  0x64, 0x65, 0x66, 0x61, 0x75, 0x6c, 0x74, 0x5f, 0x63, 0x6f, 0x6e, 0x76,
  0x32, 0x64, 0x5f, 0x32, 0x5f, 0x69, 0x6e, 0x70, 0x75, 0x74, 0x3a, 0x30,
  0x00, 0x00, 0x00, 0x00, 0x04, 0x00, 0x00, 0x00, 0x01, 0x00, 0x00, 0x00,
  0x80, 0x00, 0x00, 0x00, 0x03, 0x00, 0x00, 0x00, 0x01, 0x00, 0x00, 0x00,
  0x05, 0x00, 0x00, 0x00, 0x68, 0x00, 0x00, 0x00, 0x48, 0x00, 0x00, 0x00,
  0x38, 0x00, 0x00, 0x00, 0x18, 0x00, 0x00, 0x00, 0x04, 0x00, 0x00, 0x00,
  0xb8, 0xff, 0xff, 0xff, 0x19, 0x00, 0x00, 0x00, 0x02, 0x00, 0x00, 0x00,
  0x00, 0x00, 0x00, 0x19, 0xc8, 0xff, 0xff, 0xff, 0x09, 0x00, 0x00, 0x00,
  0x04, 0x00, 0x00, 0x00, 0x00, 0x00, 0x00, 0x09, 0x0c, 0x00, 0x0c, 0x00,
  0x0b, 0x00, 0x00, 0x00, 0x00, 0x00, 0x04, 0x00, 0x0c, 0x00, 0x00, 0x00,
  0x16, 0x00, 0x00, 0x00, 0x00, 0x00, 0x00, 0x16, 0xf0, 0xff, 0xff, 0xff,
  0x11, 0x00, 0x00, 0x00, 0x02, 0x00, 0x00, 0x00, 0x00, 0x00, 0x00, 0x11,
  0x0c, 0x00, 0x10, 0x00, 0x0f, 0x00, 0x00, 0x00, 0x08, 0x00, 0x04, 0x00,
  0x0c, 0x00, 0x00, 0x00, 0x03, 0x00, 0x00, 0x00, 0x03, 0x00, 0x00, 0x00,
  0x00, 0x00, 0x00, 0x03
};
unsigned int model_data_len = 8584;
